{
  "version": "1.0",
  "truncation": null,
  "padding": null,
  "added_tokens": [
    {
      "id": 0,
      "special": true,
      "content": "<s>",
      "single_word": false,
      "lstrip": false,
      "rstrip": false,
      "normalized": false
    },
    {
      "id": 1,
      "special": true,
      "content": "<pad>",
      "single_word": false,
      "lstrip": false,
      "rstrip": false,
      "normalized": false
    },
    {
      "id": 2,
      "special": true,
      "content": "</s>",
      "single_word": false,
      "lstrip": false,
      "rstrip": false,
      "normalized": false
    }
  ],
  "normalizer": null,
  "pre_tokenizer": {
    "type": "ByteLevel",
    "add_prefix_space": false,
    "trim_offsets": true
  },
  "post_processor": {
    "type": "ByteLevel",
    "add_prefix_space": true,
    "trim_offsets": false
  },
  "decoder": {
    "type": "ByteLevel",
    "add_prefix_space": true,
    "trim_offsets": true
  },
  "model": {
    "type": "BPE",
    "dropout": null,
    "unk_token": null,
    "continuing_subword_prefix": null,
    "end_of_word_suffix": null,
    "fuse_unk": false,
    "vocab": {
      "<s>": 0,
      "<pad>": 1,
      "</s>": 2,
      "!": 3,
      "\"": 4,
      "#": 5,
      "$": 6,
      "%": 7,
      "&": 8,
      "'": 9,
      "(": 10,
      ")": 11,
      "*": 12,
      "+": 13,
      ",": 14,
      "-": 15,
      ".": 16,
      "/": 17,
      "0": 18,
      "1": 19,
      "2": 20,
      "3": 21,
      "4": 22,
      "5": 23,
      "6": 24,
      "7": 25,
      "8": 26,
      "9": 27,
      ":": 28,
      ";": 29,
      "<": 30,
      "=": 31,
      ">": 32,
      "?": 33,
      "@": 34,
      "A": 35,
      "B": 36,
      "C": 37,
      "D": 38,
      "E": 39,
      "F": 40,
      "G": 41,
      "H": 42,
      "I": 43,
      "J": 44,
      "K": 45,
      "L": 46,
      "M": 47,
      "N": 48,
      "O": 49,
      "P": 50,
      "Q": 51,
      "R": 52,
      "S": 53,
      "T": 54,
      "U": 55,
      "V": 56,
      "W": 57,
      "X": 58,
      "Y": 59,
      "Z": 60,
      "[": 61,
      "\\": 62,
      "]": 63,
      "^": 64,
      "_": 65,
      "`": 66,
      "a": 67,
      "b": 68,
      "c": 69,
      "d": 70,
      "e": 71,
      "f": 72,
      "g": 73,
      "h": 74,
      "i": 75,
      "j": 76,
      "k": 77,
      "l": 78,
      "m": 79,
      "n": 80,
      "o": 81,
      "p": 82,
      "q": 83,
      "r": 84,
      "s": 85,
      "t": 86,
      "u": 87,
      "v": 88,
      "w": 89,
      "x": 90,
      "y": 91,
      "z": 92,
      "{": 93,
      "|": 94,
      "}": 95,
      "~": 96,
      "¡": 97,
      "¢": 98,
      "£": 99,
      "¤": 100,
      "¥": 101,
      "¦": 102,
      "§": 103,
      "¨": 104,
      "©": 105,
      "ª": 106,
      "«": 107,
      "¬": 108,
      "®": 109,
      "¯": 110,
      "°": 111,
      "±": 112,
      "²": 113,
      "³": 114,
      "´": 115,
      "µ": 116,
      "¶": 117,
      "·": 118,
      "¸": 119,
      "¹": 120,
      "º": 121,
      "»": 122,
      "¼": 123,
      "½": 124,
      "¾": 125,
      "¿": 126,
      "À": 127,
      "Á": 128,
      "Â": 129,
      "Ã": 130,
      "Ä": 131,
      "Å": 132,
      "Æ": 133,
      "Ç": 134,
      "È": 135,
      "É": 136,
      "Ê": 137,
      "Ë": 138,
      "Ì": 139,
      "Í": 140,
      "Î": 141,
      "Ï": 142,
      "Ð": 143,
      "Ñ": 144,
      "Ò": 145,
      "Ó": 146,
      "Ô": 147,
      "Õ": 148,
      "Ö": 149,
      "×": 150,
      "Ø": 151,
      "Ù": 152,
      "Ú": 153,
      "Û": 154,
      "Ü": 155,
      "Ý": 156,
      "Þ": 157,
      "ß": 158,
      "à": 159,
      "á": 160,
      "â": 161,
      "ã": 162,
      "ä": 163,
      "å": 164,
      "æ": 165,
      "ç": 166,
      "è": 167,
      "é": 168,
      "ê": 169,
      "ë": 170,
      "ì": 171,
      "í": 172,
      "î": 173,
      "ï": 174,
      "ð": 175,
      "ñ": 176,
      "ò": 177,
      "ó": 178,
      "ô": 179,
      "õ": 180,
      "ö": 181,
      "÷": 182,
      "ø": 183,
      "ù": 184,
      "ú": 185,
      "û": 186,
      "ü": 187,
      "ý": 188,
      "þ": 189,
      "ÿ": 190,
      "Ā": 191,
      "ā": 192,
      "Ă": 193,
      "ă": 194,
      "Ą": 195,
      "ą": 196,
      "Ć": 197,
      "ć": 198,
      "Ĉ": 199,
      "ĉ": 200,
      "Ċ": 201,
      "ċ": 202,
      "Č": 203,
      "č": 204,
      "Ď": 205,
      "ď": 206,
      "Đ": 207,
      "đ": 208,
      "Ē": 209,
      "ē": 210,
      "Ĕ": 211,
      "ĕ": 212,
      "Ė": 213,
      "ė": 214,
      "Ę": 215,
      "ę": 216,
      "Ě": 217,
      "ě": 218,
      "Ĝ": 219,
      "ĝ": 220,
      "Ğ": 221,
      "ğ": 222,
      "Ġ": 223,
      "ġ": 224,
      "Ģ": 225,
      "ģ": 226,
      "Ĥ": 227,
      "ĥ": 228,
      "Ħ": 229,
      "ħ": 230,
      "Ĩ": 231,
      "ĩ": 232,
      "Ī": 233,
      "ī": 234,
      "Ĭ": 235,
      "ĭ": 236,
      "Į": 237,
      "į": 238,
      "İ": 239,
      "ı": 240,
      "Ĳ": 241,
      "ĳ": 242,
      "Ĵ": 243,
      "ĵ": 244,
      "Ķ": 245,
      "ķ": 246,
      "ĸ": 247,
      "Ĺ": 248,
      "ĺ": 249,
      "Ļ": 250,
      "ļ": 251,
      "Ľ": 252,
      "ľ": 253,
      "Ŀ": 254,
      "ŀ": 255,
      "Ł": 256,
      "ł": 257,
      "Ń": 258,
      "Ġ(": 259,
      "Ġ)": 260,
      "Ġ.": 261,
      "er": 262,
      "in": 263,
      "et": 264,
      "on": 265,
      "Ġ;": 266,
      "at": 267,
      "Ġt": 268,
      "es": 269,
      "ĠS": 270,
      "en": 271,
      "Ġ,": 272,
      "al": 273,
      "Ġs": 274,
      "Ġr": 275,
      "Ġ{": 276,
      "Ġ}": 277,
      "Ġc": 278,
      "ion": 279,
      "Ġn": 280,
      "or": 281,
      "ur": 282,
      "le": 283,
      "ĠC": 284,
      "Ġi": 285,
      "Ġth": 286,
      "tr": 287,
      "Ġa": 288,
      "ic": 289,
      "Ġf": 290,
      "Ġ=": 291,
      "ing": 292,
      "Ġg": 293,
      "ar": 294,
      "Ġp": 295,
      "ro": 296,
      "ĠI": 297,
      "ce": 298,
      "Ġ<": 299,
      "ĠT": 300,
      "ĠE": 301,
      "is": 302,
      "ec": 303,
      "Ġget": 304,
      "tion": 305,
      "ent": 306,
      "ĠP": 307,
      "am": 308,
      "ed": 309,
      "an": 310,
      "ul": 311,
      "ĠStr": 312,
      "urn": 313,
      "ĠR": 314,
      "eturn": 315,
      "ĠA": 316,
      "Ġm": 317,
      "Ġin": 318,
      "ĠM": 319,
      "as": 320,
      "it": 321,
      "ĠN": 322,
      "ub": 323,
      "ĠString": 324,
      "Ġreturn": 325,
      "Ġb": 326,
      "Ġthe": 327,
      "Ġe": 328,
      "de": 329,
      "ĠL": 330,
      "ĠD": 331,
      "ĠF": 332,
      "lic": 333,
      "ut": 334,
      "Ġl": 335,
      "Ġif": 336,
      "Ġv": 337,
      "ew": 338,
      "ĠO": 339,
      "Ġ>": 340,
      "ate": 341,
      "ĠB": 342,
      "Ġo": 343,
      "ublic": 344,
      "Ġnew": 345,
      "ption": 346,
      "ull": 347,
      "Ġd": 348,
      "ĠEx": 349,
      "ame": 350,
      "il": 351,
      "ĠIn": 352,
      "se": 353,
      "id": 354,
      "ist": 355,
      "ch": 356,
      "ue": 357,
      "ect": 358,
      "ag": 359,
      "public": 360,
      "Ġnull": 361,
      "Ġto": 362,
      "ab": 363,
      "UM": 364,
      "re": 365,
      "ception": 366,
      "ol": 367,
      "NUM": 368,
      "un": 369,
      "te": 370,
      "om": 371,
      "ation": 372,
      "ĠException": 373,
      "all": 374,
      "Ġre": 375,
      "ter": 376,
      "qu": 377,
      "Ġw": 378,
      "ri": 379,
      "ess": 380,
      "Ġst": 381,
      "ĠV": 382,
      "oc": 383,
      "pe": 384,
      "ĠU": 385,
      "Ġfin": 386,
      "ment": 387,
      "ad": 388,
      "el": 389,
      "ac": 390,
      "Ġ+": 391,
      "able": 392,
      "ĠCon": 393,
      "ap": 394,
      "st": 395,
      "Ġres": 396,
      "ĠName": 397,
      "est": 398,
      "Ġfor": 399,
      "Ġint": 400,
      "ype": 401,
      "alue": 402,
      "up": 403,
      "row": 404,
      "Ġcon": 405,
      "xt": 406,
      "ass": 407,
      "ĠRe": 408,
      "Ġfinal": 409,
      "ject": 410,
      "age": 411,
      "Ġthrow": 412,
      "fi": 413,
      "Ġthis": 414,
      "Ġis": 415,
      "ot": 416,
      "od": 417,
      "Ġ[": 418,
      "Ġ]": 419,
      "ile": 420,
      "ode": 421,
      "erv": 422,
      "ars": 423,
      "ĠH": 424,
      "our": 425,
      "lass": 426,
      "Ġpro": 427,
      "dd": 428,
      "ĠList": 429,
      "im": 430,
      "ay": 431,
      "ult": 432,
      "oid": 433,
      "bject": 434,
      "Ġtr": 435,
      "iv": 436,
      "Ġof": 437,
      "ĠW": 438,
      "Ġ!": 439,
      "quest": 440,
      "Ġan": 441,
      "end": 442,
      "Ġset": 443,
      "per": 444,
      "Ġ==": 445,
      "ey": 446,
      "ĠRes": 447,
      "Ġh": 448,
      "Ġvoid": 449,
      "iz": 450,
      "Ġstat": 451,
      "um": 452,
      "pon": 453,
      "us": 454,
      "arsh": 455,
      "ource": 456,
      "ĠG": 457,
      "arshall": 458,
      "ĠType": 459,
      "ers": 460,
      "Ġstatic": 461,
      "ĠId": 462,
      "ĠEn": 463,
      "ĠPro": 464,
      "th": 465,
      "ice": 466,
      "Ġ:": 467,
      "ĠSt": 468,
      "pl": 469,
      "ath": 470,
      "ild": 471,
      "rr": 472,
      "atch": 473,
      "ir": 474,
      "Ġadd": 475,
      "oo": 476,
      "Ġex": 477,
      "Ġ-": 478,
      "ver": 479,
      "Ġvalue": 480,
      "oun": 481,
      "ata": 482,
      "Ġch": 483,
      "Ġpar": 484,
      "ĠJ": 485,
      "ervice": 486,
      "ith": 487,
      "ĠObject": 488,
      "Ġ!=": 489,
      "Ġde": 490,
      "put": 491,
      "ow": 492,
      "ponse": 493,
      "stan": 494,
      "Ġcom": 495,
      "ig": 496,
      "Ġk": 497,
      "og": 498,
      "ĠK": 499,
      "ĠClass": 500,
      "ext": 501,
      "ain": 502,
      "IN": 503,
      "ction": 504,
      "dex": 505,
      "and": 506,
      "pp": 507,
      "eth": 508,
      "ase": 509,
      "ĠRequest": 510,
      "rray": 511,
      "fer": 512,
      "uild": 513,
      "ack": 514,
      "rom": 515,
      "ĠCom": 516,
      "ty": 517,
      "ĠMap": 518,
      "os": 519,
      "lean": 520,
      "eng": 521,
      "ity": 522,
      "Ġthrows": 523,
      "ĠValue": 524,
      "ize": 525,
      "em": 526,
      "fig": 527,
      "ength": 528,
      "ator": 529,
      "ct": 530,
      "Ġname": 531,
      "ĠTo": 532,
      "ethod": 533,
      "oolean": 534,
      "ime": 535,
      "Ġj": 536,
      "eld": 537,
      "try": 538,
      "tem": 539,
      "ib": 540,
      "ĠCh": 541,
      "ield": 542,
      "ord": 543,
      "Ġ&": 544,
      "eam": 545,
      "iven": 546,
      "ĠFile": 547,
      "lement": 548,
      "Ġkey": 549,
      "ition": 550,
      "Ġby": 551,
      "ort": 552,
      "Ġel": 553,
      "text": 554,
      "Ġgiven": 555,
      "essage": 556,
      "rg": 557,
      "Ġstr": 558,
      "Ġen": 559,
      "uf": 560,
      "Ġpublic": 561,
      "li": 562,
      "art": 563,
      "ace": 564,
      "Ġelse": 565,
      "rit": 566,
      "ĠBy": 567,
      "roup": 568,
      "Ġresult": 569,
      "riv": 570,
      "ure": 571,
      "reate": 572,
      "ument": 573,
      "Ġlist": 574,
      "ON": 575,
      "orm": 576,
      "ĠDe": 577,
      "Ġlength": 578,
      "Ġand": 579,
      "ress": 580,
      "stance": 581,
      "ĠSet": 582,
      "ong": 583,
      "ory": 584,
      "ifi": 585,
      "Ġboolean": 586,
      "rivate": 587,
      "Ġmarshall": 588,
      "ĠService": 589,
      "Ġfrom": 590,
      "act": 591,
      "int": 592,
      "ies": 593,
      "lo": 594,
      "if": 595,
      "Ġ?": 596,
      "Ġtry": 597,
      "ĠTr": 598,
      "ĠKey": 599,
      "yn": 600,
      "ock": 601,
      "ve": 602,
      "Ġclass": 603,
      "ount": 604,
      "amet": 605,
      "lient": 606,
      "Ġapp": 607,
      "ach": 608,
      "eck": 609,
      "private": 610,
      "ĠArray": 611,
      "uilder": 612,
      "ĠPar": 613,
      "Ġrequest": 614,
      "toc": 615,
      "tocol": 616,
      "Ġbe": 617,
      "Ġtype": 618,
      "Ġcatch": 619,
      "Ġcont": 620,
      "ĠResponse": 621,
      "Ġwith": 622,
      "ĠPath": 623,
      "Ġwh": 624,
      "ader": 625,
      "Ġ}@": 626,
      "ute": 627,
      "ial": 628,
      "urr": 629,
      "ener": 630,
      "cri": 631,
      "ĠAs": 632,
      "Ġ&&": 633,
      "pec": 634,
      "Ġon": 635,
      "arshaller": 636,
      "ĠMarshaller": 637,
      "Ġas": 638,
      "Ġdo": 639,
      "ER": 640,
      "alid": 641,
      "cc": 642,
      "ĠAt": 643,
      "ĠCol": 644,
      "pt": 645,
      "ger": 646,
      "ang": 647,
      "ine": 648,
      "uble": 649,
      "Ġtrue": 650,
      "perty": 651,
      "mp": 652,
      "Ġus": 653,
      "ĠStream": 654,
      "Ġcreate": 655,
      "ĠUn": 656,
      "ĠData": 657,
      "Ġresource": 658,
      "vent": 659,
      "alse": 660,
      "trib": 661,
      "uffer": 662,
      "ĠAn": 663,
      "Return": 664,
      "ĠOver": 665,
      "Ġfalse": 666,
      "ner": 667,
      "Ġfile": 668,
      "ride": 669,
      "ans": 670,
      "Ġindex": 671,
      "Ġobject": 672,
      "ection": 673,
      "ence": 674,
      "Ġat": 675,
      "rgument": 676,
      "ĠNode": 677,
      "ms": 678,
      "Ġ@": 679,
      "urrent": 680,
      "Ġmethod": 681,
      "ĠOverride": 682,
      "ĠMessage": 683,
      "ĠConfig": 684,
      "fo": 685,
      "ser": 686,
      "Ġun": 687,
      "ery": 688,
      "Ġse": 689,
      "ĠPo": 690,
      "Ġlong": 691,
      "ax": 692,
      "ĠContext": 693,
      "ĠOf": 694,
      "mo": 695,
      "ected": 696,
      "ĠQ": 697,
      "Ġprotocol": 698,
      "ore": 699,
      "ĠIO": 700,
      "ified": 701,
      "str": 702,
      "ĠBuilder": 703,
      "Ġid": 704,
      "Ġappend": 705,
      "ive": 706,
      "Ġlog": 707,
      "ĠGroup": 708,
      "Ġnot": 709,
      "Ġspec": 710,
      "Ġall": 711,
      "par": 712,
      "til": 713,
      "ates": 714,
      "alu": 715,
      "ĠClient": 716,
      "ault": 717,
      "Ġ|": 718,
      "Ġpath": 719,
      "Returns": 720,
      "ber": 721,
      "ast": 722,
      "ĠIndex": 723,
      "ilter": 724,
      "ĠSe": 725,
      "Ġout": 726,
      "Ġor": 727,
      "ING": 728,
      "ets": 729,
      "Ġdata": 730,
      "ler": 731,
      "ind": 732,
      "Ġcol": 733,
      "Ġx": 734,
      "Ġinstance": 735,
      "Ġsize": 736,
      "Ġmap": 737,
      "Ġup": 738,
      "ĠNull": 739,
      "ĠTime": 740,
      "uration": 741,
      "ĠTh": 742,
      "Ġstart": 743,
      "ail": 744,
      "ĠResource": 745,
      "ameter": 746,
      "ĠField": 747,
      "ocal": 748,
      "ĠDef": 749,
      "Ġdouble": 750,
      "Ġ++": 751,
      "tern": 752,
      "ĠUtil": 753,
      "Ġ/": 754,
      "press": 755,
      "get": 756,
      "Ġwrit": 757,
      "op": 758,
      "ken": 759,
      "Ġcurrent": 760,
      "ts": 761,
      "ĠElement": 762,
      "date": 763,
      "Ġhas": 764,
      "qual": 765,
      "ip": 766,
      "ces": 767,
      "Ġresponse": 768,
      "ync": 769,
      "ound": 770,
      "AT": 771,
      "Ġthat": 772,
      "ated": 773,
      "ĠWith": 774,
      "lection": 775,
      "Ġfield": 776,
      "Ġsub": 777,
      "let": 778,
      "av": 779,
      "ĠState": 780,
      "Ġput": 781,
      "ask": 782,
      "alues": 783,
      "Ġservice": 784,
      "ĠEntry": 785,
      "Ġcl": 786,
      "mer": 787,
      "Ġdef": 788,
      "Ġnext": 789,
      "ĠAl": 790,
      "Ġbyte": 791,
      "ug": 792,
      "Ġremo": 793,
      "form": 794,
      "Ġsh": 795,
      "ĠCms": 796,
      "Ġform": 797,
      "set": 798,
      "ache": 799,
      "ĠInner": 800,
      "ĠCont": 801,
      "igh": 802,
      "leg": 803,
      "Ġconfig": 804,
      "merce": 805,
      "ys": 806,
      "ĠOption": 807,
      "der": 808,
      "Ġ||": 809,
      "ork": 810,
      "Ġcontain": 811,
      "tp": 812,
      "Ġread": 813,
      "iew": 814,
      "Ġspecified": 815,
      "escri": 816,
      "ule": 817,
      "IND": 818,
      "ific": 819,
      "ak": 820,
      "ĠPage": 821,
      "port": 822,
      "not": 823,
      "nection": 824,
      "tribute": 825,
      "ĠInfo": 826,
      "ĠOr": 827,
      "ponent": 828,
      "tected": 829,
      "Ġequal": 830,
      "Ġelement": 831,
      "ĠNot": 832,
      "ĠIm": 833,
      "out": 834,
      "Ġpr": 835,
      "ĠQu": 836,
      "ĠMethod": 837,
      "anag": 838,
      "ttp": 839,
      "ĠX": 840,
      "Ġcheck": 841,
      "Ġentry": 842,
      "arget": 843,
      "ĠBIND": 844,
      "ĠBINDING": 845,
      "umber": 846,
      "lect": 847,
      "odel": 848,
      "erver": 849,
      "mpty": 850,
      "ĠAsync": 851,
      "ession": 852,
      "ink": 853,
      "ange": 854,
      "ersion": 855,
      "bs": 856,
      "ign": 857,
      "abled": 858,
      "read": 859,
      "Ġnode": 860,
      "ary": 861,
      "pert": 862,
      "umn": 863,
      "perties": 864,
      "ames": 865,
      "Ġstring": 866,
      "pro": 867,
      "ES": 868,
      "ly": 869,
      "ĠProperty": 870,
      "son": 871,
      "ystem": 872,
      "Ġequals": 873,
      "Ġpre": 874,
      "ĠDate": 875,
      "ĠResult": 876,
      "legal": 877,
      "ĠHe": 878,
      "llegal": 879,
      "back": 880,
      "actory": 881,
      "sion": 882,
      "Ġarray": 883,
      "ob": 884,
      "Ġinput": 885,
      "ĠIllegal": 886,
      "unction": 887,
      "Ġcontext": 888,
      "erm": 889,
      "ccess": 890,
      "teger": 891,
      "ized": 892,
      "andler": 893,
      "EN": 894,
      "lock": 895,
      "Ġend": 896,
      "Ġpo": 897,
      "Ġremove": 898,
      "irst": 899,
      "ĠBuffer": 900,
      "Ġcase": 901,
      "ĠInstance": 902,
      "Ġformat": 903,
      "ID": 904,
      "Ġmessage": 905,
      "ĠArgument": 906,
      "rap": 907,
      "ĠInput": 908,
      "Ġy": 909,
      "Ġpos": 910,
      "Ġit": 911,
      "Ġwrite": 912,
      "ĠOut": 913,
      "ĠJS": 914,
      "Ġcall": 915,
      "ings": 916,
      "Ġur": 917,
      "Ġhe": 918,
      "ĠLog": 919,
      "ĠUR": 920,
      "ĠCall": 921,
      "Ġer": 922,
      "protected": 923,
      "OR": 924,
      "ĠEvent": 925,
      "ĠPr": 926,
      "tes": 927,
      "ĠStat": 928,
      "vid": 929,
      "terator": 930,
      "Ġext": 931,
      "cess": 932,
      "uth": 933,
      "Ġuser": 934,
      "anager": 935,
      "ill": 936,
      "Ġerr": 937,
      "Ġsup": 938,
      "Ġqu": 939,
      "ash": 940,
      "ĠAll": 941,
      "rror": 942,
      "ree": 943,
      "ight": 944,
      "ust": 945,
      "Ġsc": 946,
      "ĠEnabled": 947,
      "of": 948,
      "dk": 949,
      "oot": 950,
      "ĠSize": 951,
      "Ġvalues": 952,
      "fset": 953,
      "ĠSc": 954,
      "ĠInteger": 955,
      "ĠInv": 956,
      "uct": 957,
      "ĠForm": 958,
      "bj": 959,
      "ĠItem": 960,
      "ecord": 961,
      "ĠSdk": 962,
      "Ġmatch": 963,
      "Ġmax": 964,
      "ĠMet": 965,
      "Ġchar": 966,
      "Ġdefault": 967,
      "irect": 968,
      "Ġ*": 969,
      "Ġgroup": 970,
      "ources": 971,
      "Ġfind": 972,
      "vel": 973,
      "inition": 974,
      "ĠJSON": 975,
      "po": 976,
      "ĠError": 977,
      "ĠCollection": 978,
      "ĠFor": 979,
      "yp": 980,
      "ari": 981,
      "pression": 982,
      "oad": 983,
      "pi": 984,
      "ĠHttp": 985,
      "Ġreg": 986,
      "AR": 987,
      "LE": 988,
      "Ġproperty": 989,
      "ameters": 990,
      "ĠAdd": 991,
      "eat": 992,
      "ION": 993,
      "Ġ'": 994,
      "Ġfilter": 995,
      "Ġpass": 996,
      "peration": 997,
      "Ġparameter": 998,
      "ocation": 999,
      "Ġerror": 1000,
      "use": 1001,
      "ook": 1002,
      "Ġupdate": 1003,
      "ference": 1004,
      "und": 1005,
      "ĠQuery": 1006,
      "ĠNon": 1007,
      "ĠLe": 1008,
      "ĠUtils": 1009,
      "ron": 1010,
      "order": 1011,
      "ĠToken": 1012,
      "ĠSystem": 1013,
      "ĠSh": 1014,
      "ĠInter": 1015,
      "ml": 1016,
      "Ġbuffer": 1017,
      "res": 1018,
      "Ġret": 1019,
      "Ġoption": 1020,
      "ĠUser": 1021,
      "rl": 1022,
      "Ġevent": 1023,
      "notation": 1024,
      "AL": 1025,
      "Get": 1026,
      "ĠUp": 1027,
      "ost": 1028,
      "Ġtrans": 1029,
      "Ġinstanceof": 1030,
      "ĠSup": 1031,
      "Ġtime": 1032,
      "ody": 1033,
      "ĠTrans": 1034,
      "Ġstream": 1035,
      "ĠFrom": 1036,
      "Ġexec": 1037,
      "Ġitem": 1038,
      "ocument": 1039,
      "ĠEmpty": 1040,
      "Ġargument": 1041,
      "Ġal": 1042,
      "Ġsource": 1043,
      "Ġle": 1044,
      "ĠLO": 1045,
      "ard": 1046,
      "ĠRun": 1047,
      "ĠFactory": 1048,
      "ĠTable": 1049,
      "ĠManager": 1050,
      "IT": 1051,
      "Ġstate": 1052,
      "ends": 1053,
      "Ġtarget": 1054,
      "ĠHash": 1055,
      "ĠBe": 1056,
      "ĠLocal": 1057,
      "AM": 1058,
      "Ġcommerce": 1059,
      "Ġwhile": 1060,
      "parator": 1061,
      "ĠWrit": 1062,
      "pace": 1063,
      "ĠConfiguration": 1064,
      "ĠIN": 1065,
      "ance": 1066,
      "ĠComponent": 1067,
      "ĠUrl": 1068,
      "Ġbuild": 1069,
      "ĠInt": 1070,
      "Ġcontent": 1071,
      "Ġobj": 1072,
      "licy": 1073,
      "ĠCount": 1074,
      "nel": 1075,
      "uture": 1076,
      "Ġquery": 1077,
      "ry": 1078,
      "ĠText": 1079,
      "Ġlast": 1080,
      "Ġdelet": 1081,
      "ĠNext": 1082,
      "ĠContent": 1083,
      "ĠLink": 1084,
      "lose": 1085,
      "Add": 1086,
      "fix": 1087,
      "ams": 1088,
      "bug": 1089,
      "cl": 1090,
      "ST": 1091,
      "ĠDescri": 1092,
      "one": 1093,
      "Ġcontains": 1094,
      "Ġtc": 1095,
      "erial": 1096,
      "Ġorder": 1097,
      "ypes": 1098,
      "ĠOutput": 1099,
      "ĠInvalid": 1100,
      "ĠHandler": 1101,
      "entity": 1102,
      "Ġclient": 1103,
      "arn": 1104,
      "ĠOn": 1105,
      "ĠByte": 1106,
      "Ġtext": 1107,
      "ĠView": 1108,
      "Ġlocal": 1109,
      "ĠDefinition": 1110,
      "ond": 1111,
      "ge": 1112,
      "ĠLong": 1113,
      "opy": 1114,
      "sg": 1115,
      "ĠStatus": 1116,
      "ĠAttribute": 1117,
      "ple": 1118,
      "aw": 1119,
      "Ġparent": 1120,
      "ava": 1121,
      "ĠPre": 1122,
      "ud": 1123,
      "ĠCache": 1124,
      "Ġinit": 1125,
      "attern": 1126,
      "Con": 1127,
      "Ġsb": 1128,
      "arch": 1129,
      "ĠFormat": 1130,
      "Ġarg": 1131,
      "sert": 1132,
      "ension": 1133,
      "lication": 1134,
      "ĠApp": 1135,
      "ĠConnection": 1136,
      "ĠSub": 1137,
      "ĠTask": 1138,
      "Ġparse": 1139,
      "loat": 1140,
      "ĠFilter": 1141,
      "ptor": 1142,
      "ĠCode": 1143,
      "ert": 1144,
      "ynch": 1145,
      "Ġfirst": 1146,
      "mand": 1147,
      "ET": 1148,
      "ĠCallback": 1149,
      "action": 1150,
      "Ġdis": 1151,
      "empl": 1152,
      "ĠEnt": 1153,
      "own": 1154,
      "ĠListener": 1155,
      "ĠLOG": 1156,
      "utes": 1157,
      "ynchron": 1158,
      "cod": 1159,
      "Ġmin": 1160,
      "rim": 1161,
      "abel": 1162,
      "ccount": 1163,
      "Ġextends": 1164,
      "Ġurl": 1165,
      "ution": 1166,
      "Re": 1167,
      "ĠSch": 1168,
      "ification": 1169,
      "Ġexp": 1170,
      "ternal": 1171,
      "Ġz": 1172,
      "ĠModel": 1173,
      "Ġoutput": 1174,
      "ĠParameter": 1175,
      "reates": 1176,
      "Ġtable": 1177,
      "ĠAnd": 1178,
      "Ġim": 1179,
      "ĠNumber": 1180,
      "ĠPoint": 1181,
      "Ġvalid": 1182,
      "gment": 1183,
      "ope": 1184,
      "Ġcount": 1185,
      "Ġchild": 1186,
      "annel": 1187,
      "ĠSource": 1188,
      "az": 1189,
      "ĠDis": 1190,
      "Gets": 1191,
      "ED": 1192,
      "ere": 1193,
      "ingle": 1194,
      "les": 1195,
      "ĠURL": 1196,
      "Ġ%": 1197,
      "Ġdelete": 1198,
      "Ġcan": 1199,
      "ĠFunction": 1200,
      "pos": 1201,
      "ĠFuture": 1202,
      "ĠEntity": 1203,
      "ĠChar": 1204,
      "ister": 1205,
      "ĠZ": 1206,
      "atab": 1207,
      "ector": 1208,
      "ĠProperties": 1209,
      "ĠNames": 1210,
      "Ġbuilder": 1211,
      "emplate": 1212,
      "AN": 1213,
      "Ġprint": 1214,
      "Th": 1215,
      "ĠJson": 1216,
      "Ġpassed": 1217,
      "ual": 1218,
      "sum": 1219,
      "Ġq": 1220,
      "ally": 1221,
      "UR": 1222,
      "adata": 1223,
      "Creates": 1224,
      "Ġbody": 1225,
      "ĠTag": 1226,
      "ĠID": 1227,
      "ages": 1228,
      "ĠPos": 1229,
      "pen": 1230,
      "atabase": 1231,
      "Ġcolumn": 1232,
      "irectory": 1233,
      "Ġrow": 1234,
      "vider": 1235,
      "Ġinter": 1236,
      "reak": 1237,
      "ĠConstan": 1238,
      "Ġoffset": 1239,
      "etw": 1240,
      "low": 1241,
      "Ġtoken": 1242,
      "ueue": 1243,
      "ĠExec": 1244,
      "ĠProtocol": 1245,
      "Ġmsg": 1246,
      "vert": 1247,
      "Ġrun": 1248,
      "its": 1249,
      "plet": 1250,
      "ĠNo": 1251,
      "ĠReg": 1252,
      "Ġclose": 1253,
      "ĠMod": 1254,
      "idth": 1255,
      "oader": 1256,
      "ĠDo": 1257,
      "ĠDec": 1258,
      "Ġsuper": 1259,
      "Ġsession": 1260,
      "enc": 1261,
      "ĠAddress": 1262,
      "Ġact": 1263,
      "EC": 1264,
      "ifier": 1265,
      "Ġdec": 1266,
      "iles": 1267,
      "ĠTrace": 1268,
      "place": 1269,
      "ĠThread": 1270,
      "In": 1271,
      "ĠVersion": 1272,
      "itor": 1273,
      "tributes": 1274,
      "ĠTree": 1275,
      "ĠAction": 1276,
      "Ġexist": 1277,
      "ĠSession": 1278,
      "ld": 1279,
      "bserv": 1280,
      "ite": 1281,
      "ynchronized": 1282,
      "ĠUnable": 1283,
      "ĠDefault": 1284,
      "econd": 1285,
      "Ġlogger": 1286,
      "Ġinto": 1287,
      "time": 1288,
      "Ġentity": 1289,
      "ĠCl": 1290,
      "ĠOrder": 1291,
      "Ġcache": 1292,
      "trol": 1293,
      "Ġmet": 1294,
      "Ġbreak": 1295,
      "ĠRel": 1296,
      "ĠPl": 1297,
      "ĠValid": 1298,
      "Ġtag": 1299,
      "ox": 1300,
      "ĠColumn": 1301,
      "ĠBlock": 1302,
      "ĠImage": 1303,
      "ĠIterator": 1304,
      "ĠMatch": 1305,
      "ateg": 1306,
      "Ġpl": 1307,
      "ariable": 1308,
      "Ġprocess": 1309,
      "Ġparameters": 1310,
      "ĠDel": 1311,
      "ĠUpdate": 1312,
      "ant": 1313,
      "Ch": 1314,
      "ps": 1315,
      "Ġnumber": 1316,
      "ĠCommerce": 1317,
      "ther": 1318,
      "ric": 1319,
      "ML": 1320,
      "Sets": 1321,
      "Ġnum": 1322,
      "ĠBoolean": 1323,
      "ĠWe": 1324,
      "Ġare": 1325,
      "Ġattribute": 1326,
      "be": 1327,
      "ĠBase": 1328,
      "undle": 1329,
      "Ġconnection": 1330,
      "Ġtask": 1331,
      "ix": 1332,
      "Ġproperties": 1333,
      "Ġinv": 1334,
      "Ġsynchronized": 1335,
      "ĠOperation": 1336,
      "ĠJob": 1337,
      "Ġfloat": 1338,
      "ĠDouble": 1339,
      "ia": 1340,
      "ĠEnd": 1341,
      "Ġdescri": 1342,
      "Ġbuf": 1343,
      "CE": 1344,
      "oul": 1345,
      "Ġdebug": 1346,
      "quence": 1347,
      "ould": 1348,
      "ĠLevel": 1349,
      "Ġbase": 1350,
      "yle": 1351,
      "ĠAuth": 1352,
      "Ġgener": 1353,
      "scri": 1354,
      "etch": 1355,
      "ĠChild": 1356,
      "ish": 1357,
      "ĠRecord": 1358,
      "ĠApi": 1359,
      "Ġinfo": 1360,
      "ĠExpression": 1361,
      "name": 1362,
      "ĠWriter": 1363,
      "AME": 1364,
      "Ġserver": 1365,
      "ĠAccess": 1366,
      "ave": 1367,
      "mb": 1368,
      "ization": 1369,
      "Ġmodel": 1370,
      "andle": 1371,
      "Ġload": 1372,
      "Ġbytes": 1373,
      "ĠLine": 1374,
      "ĠLength": 1375,
      "RO": 1376,
      "Ġ>=": 1377,
      "Ġad": 1378,
      "Ġline": 1379,
      "ole": 1380,
      "ema": 1381,
      "ĠBytes": 1382,
      "Ġresources": 1383,
      "Ġroot": 1384,
      "ĠContain": 1385,
      "ĠComparator": 1386,
      "ĠStart": 1387,
      "Ġdate": 1388,
      "ark": 1389,
      "Ġother": 1390,
      "Ġconfiguration": 1391,
      "ĠReader": 1392,
      "ENT": 1393,
      "ackage": 1394,
      "azz": 1395,
      "io": 1396,
      "ĠAnnotation": 1397,
      "ĠObserv": 1398,
      "imit": 1399,
      "ply": 1400,
      "ĠBean": 1401,
      "uid": 1402,
      "Ġversion": 1403,
      "point": 1404,
      "raph": 1405,
      "val": 1406,
      "ĠMath": 1407,
      "uc": 1408,
      "Ġposition": 1409,
      "Ġwe": 1410,
      "ĠFeat": 1411,
      "ft": 1412,
      "Ġusing": 1413,
      "Ġsch": 1414,
      "ative": 1415,
      "ĠCheck": 1416,
      "ĠGet": 1417,
      "elper": 1418,
      "Ġ..": 1419,
      "ĠMem": 1420,
      "ĠServer": 1421,
      "Ġiterator": 1422,
      "ich": 1423,
      "ire": 1424,
      "older": 1425,
      "Ġcal": 1426,
      "ĠImpl": 1427,
      "acter": 1428,
      "ĠDocument": 1429,
      "ĠCP": 1430,
      "ĠUnit": 1431,
      "Ġcomp": 1432,
      "inding": 1433,
      "ĠConstants": 1434,
      "Ġproject": 1435,
      "ecur": 1436,
      "word": 1437,
      "ĠObservable": 1438,
      "ĠHeader": 1439,
      "Ġmod": 1440,
      "uster": 1441,
      "led": 1442,
      "gin": 1443,
      "Ġargs": 1444,
      "Marshall": 1445,
      "UT": 1446,
      "Ġ...": 1447,
      "load": 1448,
      "Ġ+=": 1449,
      "AX": 1450,
      "ĠRow": 1451,
      "UL": 1452,
      "Ġ1": 1453,
      "ĠDir": 1454,
      "ible": 1455,
      "ĠST": 1456,
      "ĠTypes": 1457,
      "Ġclazz": 1458,
      "ĠAP": 1459,
      "red": 1460,
      "ĠLock": 1461,
      "Ġexception": 1462,
      "sh": 1463,
      "lear": 1464,
      "AS": 1465,
      "Id": 1466,
      "vail": 1467,
      "ĠCase": 1468,
      "ĠServ": 1469,
      "ok": 1470,
      "ide": 1471,
      "pr": 1472,
      "EF": 1473,
      "ted": 1474,
      "Ġwhich": 1475,
      "string": 1476,
      "Ġ->": 1477,
      "arser": 1478,
      "tract": 1479,
      "ĠRef": 1480,
      "ĠGener": 1481,
      "ify": 1482,
      "ĠRuntime": 1483,
      "ency": 1484,
      "ake": 1485,
      "ĠSu": 1486,
      "Ġview": 1487,
      "Ġcomponent": 1488,
      "ĠValues": 1489,
      "Ġnames": 1490,
      "ping": 1491,
      "Ġcopy": 1492,
      "etwork": 1493,
      "ĠLoader": 1494,
      "Set": 1495,
      "struct": 1496,
      "Ġpart": 1497,
      "Ġreplace": 1498,
      "xy": 1499,
      "ĠOptions": 1500,
      "ĠOptional": 1501,
      "edic": 1502,
      "Check": 1503,
      "izer": 1504,
      "iled": 1505,
      "pend": 1506,
      "ait": 1507,
      "AG": 1508,
      "face": 1509,
      "ĠAccount": 1510,
      "rc": 1511,
      "mit": 1512,
      "Ġsubstring": 1513,
      "pare": 1514,
      "Ġoptions": 1515,
      "ĠContainer": 1516,
      "Ġauth": 1517,
      "ĠReference": 1518,
      "ility": 1519,
      "Ġfunction": 1520,
      "OD": 1521,
      "Ġimage": 1522,
      "atri": 1523,
      "sign": 1524,
      "atrix": 1525,
      "cript": 1526,
      "odes": 1527,
      "Ġjc": 1528,
      "Ġparams": 1529,
      "Ġlock": 1530,
      "Ġrequ": 1531,
      "Create": 1532,
      "This": 1533,
      "ĠParam": 1534,
      "PE": 1535,
      "Ġjob": 1536,
      "Ġone": 1537,
      "ves": 1538,
      "Ġu": 1539,
      "Ġclear": 1540,
      "Ġap": 1541,
      "ĠWork": 1542,
      "Ġrecord": 1543,
      "Ġregister": 1544,
      "Ġlistener": 1545,
      "plit": 1546,
      "air": 1547,
      "Ġselect": 1548,
      "Ġfl": 1549,
      "ĠRule": 1550,
      "tings": 1551,
      "Ġval": 1552,
      "ĠProvider": 1553,
      "Ġrel": 1554,
      "Ġaction": 1555,
      "ĠWarn": 1556,
      "lob": 1557,
      "Ġexecute": 1558,
      "Ġpage": 1559,
      "ĠPart": 1560,
      "file": 1561,
      "ĠTarget": 1562,
      "utt": 1563,
      "gn": 1564,
      "ĠURI": 1565,
      "ĠThrow": 1566,
      "esc": 1567,
      "Ġmem": 1568,
      "af": 1569,
      "ĠSpec": 1570,
      "Ġjava": 1571,
      "Adds": 1572,
      "ender": 1573,
      "emp": 1574,
      "Ġpoint": 1575,
      "ĠMode": 1576,
      "ĠAd": 1577,
      "QL": 1578,
      "ired": 1579,
      "ĠMetadata": 1580,
      "cept": 1581,
      "ell": 1582,
      "con": 1583,
      "formation": 1584,
      "ĠPattern": 1585,
      "Ġne": 1586,
      "Ġjcas": 1587,
      "Ġold": 1588,
      "Ġinitial": 1589,
      "ĠProject": 1590,
      "orage": 1591,
      "ailed": 1592,
      "imple": 1593,
      "Ġsw": 1594,
      "inal": 1595,
      "rie": 1596,
      "pli": 1597,
      "utton": 1598,
      "Ġwork": 1599,
      "dition": 1600,
      "Ġjson": 1601,
      "entic": 1602,
      "essages": 1603,
      "ush": 1604,
      "Ġelements": 1605,
      "ĠDescriptor": 1606,
      "ĠFirst": 1607,
      "ustom": 1608,
      "Ġsingle": 1609,
      "Ġlen": 1610,
      "ĠSegment": 1611,
      "ql": 1612,
      "sumer": 1613,
      "ude": 1614,
      "ĠRead": 1615,
      "ĠStack": 1616,
      "lar": 1617,
      "ĠPolicy": 1618,
      "oy": 1619,
      "ission": 1620,
      "Ġstatus": 1621,
      "ices": 1622,
      "Ġempty": 1623,
      "ĠProcess": 1624,
      "ĠAct": 1625,
      "ocket": 1626,
      "vice": 1627,
      "ĠExt": 1628,
      "ause": 1629,
      "Ġconvert": 1630,
      "Ġ0": 1631,
      "ination": 1632,
      "Ġiter": 1633,
      "illis": 1634,
      "ĠOffset": 1635,
      "Ġac": 1636,
      "TT": 1637,
      "ĠFr": 1638,
      "ables": 1639,
      "ĠParent": 1640,
      "Ġheader": 1641,
      "AC": 1642,
      "acing": 1643,
      "aces": 1644,
      "line": 1645,
      "ĠPosition": 1646,
      "Ġdel": 1647,
      "endar": 1648,
      "ical": 1649,
      "Ġper": 1650,
      "Ġrep": 1651,
      "aders": 1652,
      "IC": 1653,
      "ie": 1654,
      "Ġoperation": 1655,
      "Ġfinally": 1656,
      "Ġwhere": 1657,
      "unc": 1658,
      "ĠWarnings": 1659,
      "ĠSuppress": 1660,
      "ertific": 1661,
      "Ġused": 1662,
      "ĠAny": 1663,
      "utable": 1664,
      "ĠAPI": 1665,
      "tries": 1666,
      "ĠLocation": 1667,
      "ĠChannel": 1668,
      "utor": 1669,
      "Ġany": 1670,
      "oord": 1671,
      "Ġcode": 1672,
      "Ġblock": 1673,
      "Ġuri": 1674,
      "Ġresol": 1675,
      "ĠDet": 1676,
      "Ġfeat": 1677,
      "omain": 1678,
      "Ġwriter": 1679,
      "ĠBound": 1680,
      "Ġuse": 1681,
      "play": 1682,
      "Ġcp": 1683,
      "rid": 1684,
      "ported": 1685,
      "ĠTemplate": 1686,
      "Ġvis": 1687,
      "Ġdatabase": 1688,
      "ĠSelect": 1689,
      "Ġref": 1690,
      "YPE": 1691,
      "Ġtop": 1692,
      "Ġ<=": 1693,
      "ale": 1694,
      "ĠCommand": 1695,
      "ĠDelet": 1696,
      "ersist": 1697,
      "Ġdocument": 1698,
      "over": 1699,
      "ĠParameters": 1700,
      "Ġfetch": 1701,
      "atic": 1702,
      "Ġassert": 1703,
      "amp": 1704,
      "etry": 1705,
      "Ġannotation": 1706,
      "ĠPool": 1707,
      "ĠNullable": 1708,
      "ick": 1709,
      "raw": 1710,
      "Ġprovid": 1711,
      "Ġprev": 1712,
      "ĠWeb": 1713,
      "ĠCal": 1714,
      "Ġexpression": 1715,
      "ape": 1716,
      "ss": 1717,
      "code": 1718,
      "ĠRoot": 1719,
      "ĠVariable": 1720,
      "Ġfr": 1721,
      "ecurity": 1722,
      "ĠColor": 1723,
      "ater": 1724,
      "oin": 1725,
      "ĠApplication": 1726,
      "ĠEd": 1727,
      "oci": 1728,
      "Ġprefix": 1729,
      "Ġcommand": 1730,
      "Ġcontainer": 1731,
      "ĠIter": 1732,
      "edicate": 1733,
      "ĠBundle": 1734,
      "Ġdb": 1735,
      "ĠServlet": 1736,
      "istry": 1737,
      "Ġlabel": 1738,
      "indow": 1739,
      "Ex": 1740,
      "ĠAr": 1741,
      "ename": 1742,
      "ential": 1743,
      "ĠLay": 1744,
      "ĠMax": 1745,
      "vailable": 1746,
      "are": 1747,
      "ertificate": 1748,
      "IM": 1749,
      "ĠHelper": 1750,
      "ATION": 1751,
      "ĠQueue": 1752,
      "Ġdest": 1753,
      "ĠCreate": 1754,
      "Ġhash": 1755,
      "ren": 1756,
      "entifier": 1757,
      "Ġhost": 1758,
      "ics": 1759,
      "Ġfound": 1760,
      "UE": 1761,
      "coding": 1762,
      "ĠRE": 1763,
      "Ġpattern": 1764,
      "Ġwhen": 1765,
      "OT": 1766,
      "ĠControl": 1767,
      "Ġimp": 1768,
      "aint": 1769,
      "ĠThrowable": 1770,
      "scription": 1771,
      "ased": 1772,
      "ĠXML": 1773,
      "Ġed": 1774,
      "ĠNonn": 1775,
      "emo": 1776,
      "ermission": 1777,
      "ĠPer": 1778,
      "ĠDirectory": 1779,
      "ĠAttributes": 1780,
      "ĠLast": 1781,
      "ating": 1782,
      "ĠSQL": 1783,
      "Ġshould": 1784,
      "Ġreturns": 1785,
      "ounter": 1786,
      "ivity": 1787,
      "ines": 1788,
      "ĠParams": 1789,
      "fter": 1790,
      "IS": 1791,
      "Ġdet": 1792,
      "ors": 1793,
      "eom": 1794,
      "Ġthread": 1795,
      "EY": 1796,
      "ĠY": 1797,
      "irt": 1798,
      "ĠJava": 1799,
      "Ġmust": 1800,
      "Ġrec": 1801,
      "ee": 1802,
      "ĠEN": 1803,
      "sl": 1804,
      "Ġsrc": 1805,
      "ĠBack": 1806,
      "ĠVis": 1807,
      "ĠStore": 1808,
      "itch": 1809,
      "OM": 1810,
      "ĠNAME": 1811,
      "ĠLocale": 1812,
      "ĠAb": 1813,
      "63": 1814,
      "ĠStyle": 1815,
      "Ġsplit": 1816,
      "Ġupd": 1817,
      "irtual": 1818,
      "Ġ&#": 1819,
      "ĠTracing": 1820,
      "Ġparam": 1821,
      "Ġhandle": 1822,
      "ower": 1823,
      "ĠNonnull": 1824,
      "Ġreader": 1825,
      "Ġrange": 1826,
      "ĠSequence": 1827,
      "Ġtim": 1828,
      "Ġapi": 1829,
      "Ġopen": 1830,
      "tml": 1831,
      "ĠBox": 1832,
      "ialog": 1833,
      "Ġsend": 1834,
      "rapper": 1835,
      "ĠTim": 1836,
      "UID": 1837,
      "ugin": 1838,
      "ĠCON": 1839,
      "soci": 1840,
      "Ġhandler": 1841,
      "Ġsearch": 1842,
      "Ġno": 1843,
      "Ġlocation": 1844,
      "Ġbinding": 1845,
      "ĠSched": 1846,
      "her": 1847,
      "ĠMult": 1848,
      "ymb": 1849,
      "ĠExecution": 1850,
      "LL": 1851,
      "ĠLabel": 1852,
      "ĠRemo": 1853,
      "ĠAtom": 1854,
      "ULT": 1855,
      "Ġwidth": 1856,
      "gr": 1857,
      "tach": 1858,
      "Ġaddress": 1859,
      "ures": 1860,
      "ATE": 1861,
      "ĠComplet": 1862,
      "Ġprovided": 1863,
      "ĠPO": 1864,
      "Ġwill": 1865,
      "ĠRange": 1866,
      "lobal": 1867,
      "ĠCurrent": 1868,
      "andom": 1869,
      "ĠPackage": 1870,
      "ĠIf": 1871,
      "Ġcre": 1872,
      "PT": 1873,
      "eners": 1874,
      "AD": 1875,
      "redential": 1876,
      "stract": 1877,
      "gnore": 1878,
      "ĠFound": 1879,
      "Ġ>>": 1880,
      "Ġconn": 1881,
      "ether": 1882,
      "Ġover": 1883,
      "Ġaccess": 1884,
      "verter": 1885,
      "ĠSchema": 1886,
      "Ġcas": 1887,
      "rup": 1888,
      "ĠVector": 1889,
      "check": 1890,
      "oke": 1891,
      "Ġincl": 1892,
      "Remo": 1893,
      "Ġback": 1894,
      "Ġkeys": 1895,
      "posit": 1896,
      "fore": 1897,
      "ĠChange": 1898,
      "ĠMon": 1899,
      "Ġhttp": 1900,
      "itive": 1901,
      "ĠUri": 1902,
      "Ġsort": 1903,
      "ĠParser": 1904,
      "inter": 1905,
      "Ġcor": 1906,
      "edia": 1907,
      "ĠDB": 1908,
      "Ġorig": 1909,
      "stant": 1910,
      "Ġcollection": 1911,
      "Ġwarn": 1912,
      "ĠKEY": 1913,
      "oute": 1914,
      "Ġbean": 1915,
      "ĠSimple": 1916,
      "Ġlevel": 1917,
      "map": 1918,
      "Ġapply": 1919,
      "ymbol": 1920,
      "ĠMillis": 1921,
      "ĠComp": 1922,
      "ĠPRO": 1923,
      "EL": 1924,
      "Ġleft": 1925,
      "Ġchannel": 1926,
      "Ġserial": 1927,
      "pository": 1928,
      "ĠFunc": 1929,
      "ĠFields": 1930,
      "ĠFl": 1931,
      "ature": 1932,
      "Ġdirectory": 1933,
      "Ġ\\": 1934,
      "ments": 1935,
      "Ġits": 1936,
      "Ġag": 1937,
      "ĠReturn": 1938,
      "Ġport": 1939,
      "reg": 1940,
      "static": 1941,
      "Ġdir": 1942,
      "Ġsign": 1943,
      "Ġlink": 1944,
      "Com": 1945,
      "Ġapplication": 1946,
      "resent": 1947,
      "ĠDoc": 1948,
      "entication": 1949,
      "ĠTransaction": 1950,
      "gle": 1951,
      "duct": 1952,
      "lish": 1953,
      "ĠMetric": 1954,
      "ences": 1955,
      "umm": 1956,
      "ormal": 1957,
      "ĠPort": 1958,
      "64": 1959,
      "ĠHost": 1960,
      "ĠExtension": 1961,
      "ĠAg": 1962,
      "Ġfields": 1963,
      "Ġmult": 1964,
      "Ġtypes": 1965,
      "Ġbegin": 1966,
      "ĠCalendar": 1967,
      "itle": 1968,
      "ĠSerial": 1969,
      "apter": 1970,
      "GER": 1971,
      "ĠMessages": 1972,
      "St": 1973,
      "ĠCan": 1974,
      "ĠSuch": 1975,
      "ved": 1976,
      "ĠMatrix": 1977,
      "ined": 1978,
      "Ġonly": 1979,
      "tal": 1980,
      "ules": 1981,
      "Ġtemplate": 1982,
      "ĠScope": 1983,
      "ĠAbstract": 1984,
      "oordin": 1985,
      "ĠDescription": 1986,
      "ĠSettings": 1987,
      "sor": 1988,
      "ision": 1989,
      "ĠSign": 1990,
      "RE": 1991,
      "EX": 1992,
      "bers": 1993,
      "Ġtemp": 1994,
      "vir": 1995,
      "ĠTYPE": 1996,
      "BLE": 1997,
      "uck": 1998,
      "viron": 1999,
      "Ġcompare": 2000,
      "ities": 2001,
      "Ġswitch": 2002,
      "ĠKeys": 2003,
      "Ġsegment": 2004,
      "valu": 2005,
      "checked": 2006,
      "ĠTop": 2007,
      "ĠDatabase": 2008,
      "ĠVAL": 2009,
      "ĠBit": 2010,
      "cul": 2011,
      "Ġexists": 2012,
      "Ġar": 2013,
      "ĠExp": 2014,
      "Ġcur": 2015,
      "Checks": 2016,
      "Ġwhether": 2017,
      "Ġtransform": 2018,
      "ĠMo": 2019,
      "ĠUs": 2020,
      "ĠWidth": 2021,
      "ails": 2022,
      "ĠNetwork": 2023,
      "Ġmatcher": 2024,
      "ations": 2025,
      "ĠMeta": 2026,
      "Ġvalidate": 2027,
      "ĠEnum": 2028,
      "ategory": 2029,
      "structor": 2030,
      "vironment": 2031,
      "Ġlocale": 2032,
      "ĠCL": 2033,
      "oll": 2034,
      "ĠLogger": 2035,
      "Ġscope": 2036,
      "Ġind": 2037,
      "ĠCollections": 2038,
      "ĠUUID": 2039,
      "ilename": 2040,
      "Ġxml": 2041,
      "itial": 2042,
      "ĠSib": 2043,
      "OL": 2044,
      "ublish": 2045,
      "ĠMAX": 2046,
      "ĠGraph": 2047,
      "ĠNew": 2048,
      "eometry": 2049,
      "ĠFiles": 2050,
      "ESS": 2051,
      "Ġstarts": 2052,
      "angu": 2053,
      "Ġsp": 2054,
      "ĠMin": 2055,
      "Ġattributes": 2056,
      "ĠPersist": 2057,
      "any": 2058,
      "pute": 2059,
      "ĠGr": 2060,
      "Ġitems": 2061,
      "reen": 2062,
      "ln": 2063,
      "ĠLOGGER": 2064,
      "Ġcharacter": 2065,
      "ĠProxy": 2066,
      "ploy": 2067,
      "Ġaccount": 2068,
      "iss": 2069,
      "Ġmatches": 2070,
      "UN": 2071,
      "Ġcluster": 2072,
      "Ġfiles": 2073,
      "ĠSingle": 2074,
      "IG": 2075,
      "ĠSearch": 2076,
      "ĠVar": 2077,
      "estamp": 2078,
      "ting": 2079,
      "etrie": 2080,
      "uple": 2081,
      "ĠDelete": 2082,
      "ĠArg": 2083,
      "Ġcallback": 2084,
      "Ġlay": 2085,
      "TER": 2086,
      "ph": 2087,
      "rimary": 2088,
      "ome": 2089,
      "imum": 2090,
      "Ġtrim": 2091,
      "ability": 2092,
      "inary": 2093,
      "Ġright": 2094,
      "Ġexpected": 2095,
      "Ġcolor": 2096,
      "Ġrepresent": 2097,
      "ĠPair": 2098,
      "itr": 2099,
      "AP": 2100,
      "Ġct": 2101,
      "Ġwait": 2102,
      "Ġinternal": 2103,
      "Ġprintln": 2104,
      "Ġuuid": 2105,
      "ĠPrefix": 2106,
      "ĠCertificate": 2107,
      "RR": 2108,
      "ding": 2109,
      "Ġsystem": 2110,
      "istance": 2111,
      "Ġqueue": 2112,
      "que": 2113,
      "Ġreference": 2114,
      "Ġunchecked": 2115,
      "nap": 2116,
      "Ġut": 2117,
      "tep": 2118,
      "ĠDebug": 2119,
      "Ġcomplet": 2120,
      "ĠOpen": 2121,
      "ĠFailed": 2122,
      "ĠInternal": 2123,
      "ĠXml": 2124,
      "ious": 2125,
      "gress": 2126,
      "ĠMapping": 2127,
      "ĠVoid": 2128,
      "ex": 2129,
      "Ġtree": 2130,
      "Ġbased": 2131,
      "ĠSocket": 2132,
      "Ġver": 2133,
      "ached": 2134,
      "resh": 2135,
      "imal": 2136,
      "ĠFI": 2137,
      "ĠMatcher": 2138,
      "enu": 2139,
      "ĠStorage": 2140,
      "ĠThe": 2141,
      "ĠConsumer": 2142,
      "Ġ2": 2143,
      "ĠCharacter": 2144,
      "ĠSp": 2145,
      "CH": 2146,
      "shot": 2147,
      "ĠDEF": 2148,
      "Ġmon": 2149,
      "anguage": 2150,
      "Ġsk": 2151,
      "Ġassoci": 2152,
      "En": 2153,
      "ĠNotification": 2154,
      "Ġfactory": 2155,
      "ĠStatement": 2156,
      "Ġll": 2157,
      "ĠSecurity": 2158,
      "Ġpool": 2159,
      "wo": 2160,
      "ĠResol": 2161,
      "ĠFeature": 2162,
      "Ġexit": 2163,
      "Ġdoc": 2164,
      "ECT": 2165,
      "ĠArrays": 2166,
      "Ġorg": 2167,
      "Ġgenerate": 2168,
      "unk": 2169,
      "Use": 2170,
      "Ġallow": 2171,
      "ategy": 2172,
      "ning": 2173,
      "Ġclos": 2174,
      "Ġbit": 2175,
      "Ġprop": 2176,
      "policy": 2177,
      "wner": 2178,
      "ĠIterable": 2179,
      "ĠIs": 2180,
      "Ġbound": 2181,
      "fs": 2182,
      "Ġtotal": 2183,
      "Ġheight": 2184,
      "ithm": 2185,
      "ready": 2186,
      "atas": 2187,
      "Ġidx": 2188,
      "Ġsecond": 2189,
      "ĠNum": 2190,
      "Ġtmp": 2191,
      "rupted": 2192,
      "old": 2193,
      "Pro": 2194,
      "Ġstop": 2195,
      "ĠInterface": 2196,
      "Ġaccept": 2197,
      "AULT": 2198,
      "ise": 2199,
      "esent": 2200,
      "Read": 2201,
      "ĠButton": 2202,
      "ample": 2203,
      "ared": 2204,
      "ĠCluster": 2205,
      "imension": 2206,
      "arset": 2207,
      "Up": 2208,
      "ĠBody": 2209,
      "itions": 2210,
      "Ġtrace": 2211,
      "Ġextension": 2212,
      "Ġdes": 2213,
      "oly": 2214,
      "xis": 2215,
      "anged": 2216,
      "Ġspecific": 2217,
      "Ġhave": 2218,
      "ank": 2219,
      "ĠBlocking": 2220,
      "Ġtimeout": 2221,
      "napshot": 2222,
      "Ġafter": 2223,
      "ĠVALUE": 2224,
      "Ġavailable": 2225,
      "ĠWrapper": 2226,
      "ĠIds": 2227,
      "gor": 2228,
      "List": 2229,
      "ĠDEFAULT": 2230,
      "RI": 2231,
      "ĠResources": 2232,
      "Ġcontrol": 2233,
      "ĠBig": 2234,
      "ĠTerm": 2235,
      "Ġsql": 2236,
      "Ġserv": 2237,
      "anel": 2238,
      "acity": 2239,
      "ummary": 2240,
      "Ġnon": 2241,
      "Retrie": 2242,
      "Ġcustom": 2243,
      "ancel": 2244,
      "rig": 2245,
      "EST": 2246,
      "ookie": 2247,
      "Ġlimit": 2248,
      "perator": 2249,
      "Ġattr": 2250,
      "ped": 2251,
      "Ġwas": 2252,
      "ĠTimeout": 2253,
      "ret": 2254,
      "Ġstack": 2255,
      "ĠModule": 2256,
      "ĠSE": 2257,
      "Name": 2258,
      "mon": 2259,
      "Ġeach": 2260,
      "river": 2261,
      "Ġfeature": 2262,
      "Ġraw": 2263,
      "riter": 2264,
      "issing": 2265,
      "ĠBuffered": 2266,
      "Ġmetadata": 2267,
      "ucket": 2268,
      "Ġab": 2269,
      "uler": 2270,
      "Ġprotected": 2271,
      "ear": 2272,
      "Ġmake": 2273,
      "void": 2274,
      "ĠRec": 2275,
      "Ġinc": 2276,
      "Ġstore": 2277,
      "ĠConn": 2278,
      "Ġdoes": 2279,
      "enter": 2280,
      "Ġexisting": 2281,
      "Ġinvoke": 2282,
      "Ġschema": 2283,
      "ĠCap": 2284,
      "ĠTransform": 2285,
      "PL": 2286,
      "jection": 2287,
      "ĠElements": 2288,
      "gorithm": 2289,
      "nown": 2290,
      "ient": 2291,
      "ayload": 2292,
      "path": 2293,
      "ĠLayout": 2294,
      "Ġinformation": 2295,
      "Ġ--": 2296,
      "ĠRole": 2297,
      "ĠUns": 2298,
      "ookup": 2299,
      "ITY": 2300,
      "Ġsu": 2301,
      "Ġstyle": 2302,
      "Ġunit": 2303,
      "Ġpost": 2304,
      "mutable": 2305,
      "Ġtwo": 2306,
      "Ġreset": 2307,
      "ERS": 2308,
      "yc": 2309,
      "Ġresults": 2310,
      "ĠIgnore": 2311,
      "ĠCondition": 2312,
      "ifact": 2313,
      "Ġextract": 2314,
      "Ġresp": 2315,
      "ĠEndpoint": 2316,
      "ĠHeaders": 2317,
      "CT": 2318,
      "ĠDeclar": 2319,
      "ĠZone": 2320,
      "idget": 2321,
      "Ġcms": 2322,
      "EM": 2323,
      "Ġpassword": 2324,
      "IZ": 2325,
      "ĠSort": 2326,
      "coded": 2327,
      "ĠExecutor": 2328,
      "Ġvariable": 2329,
      "iod": 2330,
      "ĠScript": 2331,
      "ĠEX": 2332,
      "Ġdescription": 2333,
      "Ġmo": 2334,
      "cip": 2335,
      "AY": 2336,
      "ceiv": 2337,
      "Ġentries": 2338,
      "Ġbeen": 2339,
      "Ġcollect": 2340,
      "bsol": 2341,
      "round": 2342,
      "Ġnitr": 2343,
      "Ġconf": 2344,
      "Ġnitro": 2345,
      "Ġcannot": 2346,
      "Ġrequire": 2347,
      "Ġsequence": 2348,
      "Ġresolve": 2349,
      "Ġfull": 2350,
      "ipe": 2351,
      "tifact": 2352,
      "Ġ<<": 2353,
      "Ġencode": 2354,
      "ĠAssign": 2355,
      "ays": 2356,
      "ff": 2357,
      "ĠInterrupted": 2358,
      "ĠHeight": 2359,
      "tex": 2360,
      "erge": 2361,
      "ĠClos": 2362,
      "ĠPass": 2363,
      "ging": 2364,
      "anaged": 2365,
      "Ġsched": 2366,
      "Ġop": 2367,
      "ique": 2368,
      "ĠWindow": 2369,
      "ns": 2370,
      "ĠUT": 2371,
      "Writ": 2372,
      "down": 2373,
      "verts": 2374,
      "stances": 2375,
      "atew": 2376,
      "Ġbefore": 2377,
      "ured": 2378,
      "ĠUN": 2379,
      "ferences": 2380,
      "plied": 2381,
      "Ġalready": 2382,
      "ĠPermission": 2383,
      "elf": 2384,
      "ĠPredicate": 2385,
      "ĠSec": 2386,
      "ĠBatch": 2387,
      "Ġactive": 2388,
      "ĠMember": 2389,
      "flow": 2390,
      "ority": 2391,
      "Ġatom": 2392,
      "Ġbundle": 2393,
      "Ġctx": 2394,
      "Ġmode": 2395,
      "ending": 2396,
      "ĠDisc": 2397,
      "redentials": 2398,
      "ĠSupport": 2399,
      "Ġbatch": 2400,
      "ĠVer": 2401,
      "ĠVal": 2402,
      "bsolute": 2403,
      "ABLE": 2404,
      "Ġmark": 2405,
      "ags": 2406,
      "ĠIdentifier": 2407,
      "Ġrequired": 2408,
      "Ġmetric": 2409,
      "ĠWrite": 2410,
      "Ġli": 2411,
      "ĠVirtual": 2412,
      "lick": 2413,
      "Ġdefinition": 2414,
      "Ġchildren": 2415,
      "ĠPersistence": 2416,
      "ward": 2417,
      "Ġ::": 2418,
      "Ġdepend": 2419,
      "Ġtest": 2420,
      "Ġreport": 2421,
      "Ġprevious": 2422,
      "ĠWh": 2423,
      "Ġshort": 2424,
      "Ġso": 2425,
      "lem": 2426,
      "ĠERR": 2427,
      "ixed": 2428,
      "Ġred": 2429,
      "ont": 2430,
      "Ġpackage": 2431,
      "Ġdestination": 2432,
      "aster": 2433,
      "ĠBuild": 2434,
      "Ġrule": 2435,
      "lot": 2436,
      "amed": 2437,
      "ĠAdapter": 2438,
      "SS": 2439,
      "ĠUuid": 2440,
      "Ġtransaction": 2441,
      "ier": 2442,
      "Ġarguments": 2443,
      "incip": 2444,
      "Removes": 2445,
      "ateway": 2446,
      "Ġdevice": 2447,
      "ĠFlow": 2448,
      "ĠConverter": 2449,
      "ĠRegion": 2450,
      "Ġutil": 2451,
      "Ġcondition": 2452,
      "anges": 2453,
      "Ġobjects": 2454,
      "lease": 2455,
      "Str": 2456,
      "ĠImp": 2457,
      "ĠHtml": 2458,
      "ĠLinked": 2459,
      "prec": 2460,
      "ĠFloat": 2461,
      "Ġprovider": 2462,
      "Ġfilename": 2463,
      "incipal": 2464,
      "min": 2465,
      "nable": 2466,
      "ĠDb": 2467,
      "Ġnormal": 2468,
      "Ġvari": 2469,
      "Ġreq": 2470,
      "ĠPointer": 2471,
      "Ġnamespace": 2472,
      "ll": 2473,
      "straint": 2474,
      "andid": 2475,
      "actor": 2476,
      "Ġmodule": 2477,
      "Ġword": 2478,
      "ular": 2479,
      "Ġterm": 2480,
      "Ġinsert": 2481,
      "elet": 2482,
      "ĠRegistry": 2483,
      "ĠPR": 2484,
      "sp": 2485,
      "ĠDomain": 2486,
      "ĠDevice": 2487,
      "ERT": 2488,
      "ĠDialog": 2489,
      "eries": 2490,
      "mt": 2491,
      "ĠLoad": 2492,
      "ĠTR": 2493,
      "ipp": 2494,
      "ged": 2495,
      "afe": 2496,
      "upported": 2497,
      "Ġmember": 2498,
      "ucture": 2499,
      "aining": 2500,
      "ĠSymbol": 2501,
      "ĠGET": 2502,
      "urrency": 2503,
      "ĠSubscription": 2504,
      "Find": 2505,
      "Ġcap": 2506,
      "ĠDE": 2507,
      "to": 2508,
      "ĠRepository": 2509,
      "ĠBounds": 2510,
      "ĠEng": 2511,
      "greg": 2512,
      "ĠPlugin": 2513,
      "Ġscript": 2514,
      "md": 2515,
      "Ġdescribe": 2516,
      "Ġ8": 2517,
      "OW": 2518,
      "Res": 2519,
      "ored": 2520,
      "Ġjoin": 2521,
      "Ġassociated": 2522,
      "Ġneed": 2523,
      "een": 2524,
      "US": 2525,
      "Ġproxy": 2526,
      "Ġ{}": 2527,
      "rop": 2528,
      "Ġwrap": 2529,
      "class": 2530,
      "Ġaut": 2531,
      "ĠFrame": 2532,
      "ynam": 2533,
      "TTP": 2534,
      "ĠPh": 2535,
      "tempt": 2536,
      "ĠTags": 2537,
      "agment": 2538,
      "ĠInterval": 2539,
      "Ġformatter": 2540,
      "Ġacc": 2541,
      "ĠPost": 2542,
      "ek": 2543,
      "ĠCre": 2544,
      "Ġvisit": 2545,
      "ĠImmutable": 2546,
      "Ġpolicy": 2547,
      "ĠBl": 2548,
      "Ġcontin": 2549,
      "ĠParse": 2550,
      "Ġendpoint": 2551,
      "Ġprops": 2552,
      "ĠObj": 2553,
      "eme": 2554,
      "ĠMapper": 2555,
      "ade": 2556,
      "Ġweb": 2557,
      "ĠPrice": 2558,
      "Ġme": 2559,
      "ailure": 2560,
      "ceptor": 2561,
      "ĠEncoding": 2562,
      "ĠObjects": 2563,
      "Ġchange": 2564,
      "Ġoriginal": 2565,
      "ODE": 2566,
      "Ġnodes": 2567,
      "ĠRoute": 2568,
      "plier": 2569,
      "ASS": 2570,
      "Ġbind": 2571,
      "pn": 2572,
      "ĠMedia": 2573,
      "ĠHandle": 2574,
      "ĠRelation": 2575,
      "Converts": 2576,
      "ĠMulti": 2577,
      "Ġdif": 2578,
      "olog": 2579,
      "ĠResults": 2580,
      "Ġself": 2581,
      "Ġnetwork": 2582,
      "Ġdisplay": 2583,
      "ĠRed": 2584,
      "ĠMark": 2585,
      "ĠValidation": 2586,
      "utdown": 2587,
      "etween": 2588,
      "eo": 2589,
      "ĠSU": 2590,
      "ĠSummary": 2591,
      "ĠActivity": 2592,
      "ĠUnsupported": 2593,
      "ĠEngine": 2594,
      "ĠProfile": 2595,
      "istory": 2596,
      "ĠOnly": 2597,
      "Ġprivate": 2598,
      "ĠLower": 2599,
      "ĠRep": 2600,
      "00": 2601,
      "ployment": 2602,
      "ĠDepend": 2603,
      "AGE": 2604,
      "IV": 2605,
      "andard": 2606,
      "Ġio": 2607,
      "ĠHTTP": 2608,
      "TH": 2609,
      "ĠCustom": 2610,
      "Ġvar": 2611,
      "ĠUTF": 2612,
      "Ġdomain": 2613,
      "Gener": 2614,
      "Ġshow": 2615,
      "ĠCategory": 2616,
      "Ġph": 2617,
      "ĠRemote": 2618,
      "Ġsame": 2619,
      "izes": 2620,
      "uffix": 2621,
      "rigger": 2622,
      "Ġstatement": 2623,
      "Ġpop": 2624,
      "Ġparser": 2625,
      "Ġconc": 2626,
      "ĠStrategy": 2627,
      "precated": 2628,
      "Delet": 2629,
      "dates": 2630,
      "andl": 2631,
      "Ġrandom": 2632,
      "ĠCounter": 2633,
      "ycle": 2634,
      "Ġdig": 2635,
      "Ġstorage": 2636,
      "Ġclasses": 2637,
      "ĠAttach": 2638,
      "Ġheaders": 2639,
      "ĠGenerator": 2640,
      "ĠClose": 2641,
      "Ġprimary": 2642,
      "Ġcompute": 2643,
      "rimitive": 2644,
      "The": 2645,
      "ĠTuple": 2646,
      "ĠDig": 2647,
      "Ġimplement": 2648,
      "IL": 2649,
      "ĠNodes": 2650,
      "ĠCell": 2651,
      "ĠMan": 2652,
      "Ġbutton": 2653,
      "Ġencoding": 2654,
      "Ġremote": 2655,
      "URL": 2656,
      "ynamic": 2657,
      "eet": 2658,
      "Ġbut": 2659,
      "ĠHolder": 2660,
      "ĠItems": 2661,
      "Ġordered": 2662,
      "Ġgr": 2663,
      "Ġscan": 2664,
      "Ġactual": 2665,
      "ology": 2666,
      "ĠMissing": 2667,
      "Ġlisteners": 2668,
      "IST": 2669,
      "Ġmapping": 2670,
      "Ġaxis": 2671,
      "ĠAgent": 2672,
      "Ġrender": 2673,
      "cry": 2674,
      "ĠShort": 2675,
      "ĠScheduler": 2676,
      "ĠCH": 2677,
      "Ġsum": 2678,
      "Ġam": 2679,
      "Ġmatrix": 2680,
      "Ġmethods": 2681,
      "ibility": 2682,
      "ĠFormatter": 2683,
      "ens": 2684,
      "ĠALL": 2685,
      "Ġ()": 2686,
      "Ġcontinue": 2687,
      "Ġdeclar": 2688,
      "ĠSuccess": 2689,
      "Ġselected": 2690,
      "asic": 2691,
      "ugh": 2692,
      "Ġpair": 2693,
      "Ġtitle": 2694,
      "Ġscale": 2695,
      "ĠDisplay": 2696,
      "Ġcalled": 2697,
      "Ġpredicate": 2698,
      "Cal": 2699,
      "ixel": 2700,
      "Ġassign": 2701,
      "pc": 2702,
      "ĠSk": 2703,
      "ĠScale": 2704,
      "Ġduration": 2705,
      "ĠDraw": 2706,
      "Det": 2707,
      "ĠPrint": 2708,
      "ground": 2709,
      "ta": 2710,
      "ĠDecimal": 2711,
      "32": 2712,
      "ended": 2713,
      "Ġdistance": 2714,
      "Ġgraph": 2715,
      "atal": 2716,
      "Ġmay": 2717,
      "ĠDuration": 2718,
      "oogle": 2719,
      "ĠMemory": 2720,
      "sure": 2721,
      "ĠCollect": 2722,
      "Ġsubscription": 2723,
      "01": 2724,
      "ĠOp": 2725,
      "Ġframe": 2726,
      "ias": 2727,
      "uction": 2728,
      "Ġos": 2729,
      "FF": 2730,
      "NAME": 2731,
      "Ġsupplied": 2732,
      "ataset": 2733,
      "ĠIND": 2734,
      "Ġem": 2735,
      "ountry": 2736,
      "ĠGeneric": 2737,
      "ĠRender": 2738,
      "ĠDesc": 2739,
      "tain": 2740,
      "ict": 2741,
      "oordinate": 2742,
      "ĠPassword": 2743,
      "ĠEntries": 2744,
      "Ġtags": 2745,
      "ĠEnvironment": 2746,
      "esource": 2747,
      "Ġpack": 2748,
      "Ġseparator": 2749,
      "ĠAre": 2750,
      "eed": 2751,
      "ĠMenu": 2752,
      "ĠNOT": 2753,
      "ĠPROP": 2754,
      "eta": 2755,
      "OK": 2756,
      "OUR": 2757,
      "DS": 2758,
      "ĠVari": 2759,
      "iction": 2760,
      "Ġoff": 2761,
      "ĠERROR": 2762,
      "Ġmatching": 2763,
      "Ġperform": 2764,
      "SE": 2765,
      "ĠModified": 2766,
      "itional": 2767,
      "IZE": 2768,
      "ĠPrecond": 2769,
      "ous": 2770,
      "Ġregistry": 2771,
      "ĠController": 2772,
      "Ġfuture": 2773,
      "STAN": 2774,
      "Ġsave": 2775,
      "TE": 2776,
      "ĠExist": 2777,
      "Ġconsumer": 2778,
      "istr": 2779,
      "ĠSite": 2780,
      "Ġdown": 2781,
      "ĠCur": 2782,
      "legate": 2783,
      "ĠInd": 2784,
      "ĠAc": 2785,
      "IX": 2786,
      "Ġrest": 2787,
      "Se": 2788,
      "Ġflush": 2789,
      "Ġthan": 2790,
      "Ġregion": 2791,
      "orization": 2792,
      "Ġvector": 2793,
      "Ġfailed": 2794,
      "Ġexcl": 2795,
      "Ġsettings": 2796,
      "ĠSignature": 2797,
      "IR": 2798,
      "bo": 2799,
      "Ġexecutor": 2800,
      "Ġthen": 2801,
      "ven": 2802,
      "itude": 2803,
      "ĠChain": 2804,
      "lias": 2805,
      "Ġpars": 2806,
      "ĠRequ": 2807,
      "ĠListeners": 2808,
      "ĠDeprecated": 2809,
      "ĠPreconditions": 2810,
      "pth": 2811,
      "Convert": 2812,
      "Ġbetween": 2813,
      "ĠLimit": 2814,
      "ĠTrack": 2815,
      "ĠDetails": 2816,
      "ian": 2817,
      "rement": 2818,
      "ĠGeometry": 2819,
      "oop": 2820,
      "ĠNamespace": 2821,
      "ĠPAR": 2822,
      "verse": 2823,
      "ĠChildren": 2824,
      "ĠProduct": 2825,
      "ĠAbsolute": 2826,
      "ĠCopy": 2827,
      "Ġwindow": 2828,
      "ĠResolver": 2829,
      "Ġunder": 2830,
      "Ġthem": 2831,
      "Ġupdater": 2832,
      "ĠRandom": 2833,
      "Ġwithin": 2834,
      "Ġcompany": 2835,
      "stall": 2836,
      "ĠMethods": 2837,
      "ĠAuthentication": 2838,
      "ĠFolder": 2839,
      "ĠRES": 2840,
      "Ġins": 2841,
      "ĠGateway": 2842,
      "ĠGit": 2843,
      "Ġdraw": 2844,
      "vision": 2845,
      "Ġrem": 2846,
      "riority": 2847,
      "ĠConstructor": 2848,
      "Ġdefined": 2849,
      "ARN": 2850,
      "Ġdecode": 2851,
      "ĠAlias": 2852,
      "ĠArgs": 2853,
      "Ġrole": 2854,
      "IP": 2855,
      "ero": 2856,
      "Ġevalu": 2857,
      "Ġrows": 2858,
      "Ġskip": 2859,
      "ges": 2860,
      "ĠBuf": 2861,
      "MENT": 2862,
      "Ġopt": 2863,
      "ĠMe": 2864,
      "Ġinclude": 2865,
      "Retrieves": 2866,
      "riteria": 2867,
      "ou": 2868,
      "Ġlat": 2869,
      "ĠSnapshot": 2870,
      "Ġcounter": 2871,
      "Ġclean": 2872,
      "ĠIcon": 2873,
      "Ġimport": 2874,
      "Ġpartition": 2875,
      "Ġmain": 2876,
      "ĠInitial": 2877,
      "Ġdescriptor": 2878,
      "Ġfire": 2879,
      "erson": 2880,
      "ĠPlan": 2881,
      "IF": 2882,
      "OUN": 2883,
      "Ġencoded": 2884,
      "ĠEl": 2885,
      "ĠClasses": 2886,
      "ĠPanel": 2887,
      "ĠNO": 2888,
      "ĠConstant": 2889,
      "oom": 2890,
      "ĠAut": 2891,
      "ĠOri": 2892,
      "ĠPresent": 2893,
      "ACE": 2894,
      "Ġssl": 2895,
      "Ġlookup": 2896,
      "Ġhead": 2897,
      "andidate": 2898,
      "Ġtx": 2899,
      "ĠPublish": 2900,
      "ĠPAT": 2901,
      "Ġensure": 2902,
      "De": 2903,
      "ĠGroups": 2904,
      "ĠScan": 2905,
      "IME": 2906,
      "ites": 2907,
      "Ġcreated": 2908,
      "Updates": 2909,
      "iate": 2910,
      "Ġcancel": 2911,
      "yped": 2912,
      "ĠCLASS": 2913,
      "Ġinvalid": 2914,
      "df": 2915,
      "Ġaddr": 2916,
      "ĠAud": 2917,
      "Ġalias": 2918,
      "Ġprofile": 2919,
      "ĠArea": 2920,
      "ason": 2921,
      "Ġusername": 2922,
      "Ġinclud": 2923,
      "Ġloc": 2924,
      "Ġinitialize": 2925,
      "Ġip": 2926,
      "ĠRunnable": 2927,
      "Ġtopic": 2928,
      "ĠFull": 2929,
      "Ġauthentication": 2930,
      "ĠLeft": 2931,
      "ĠTopic": 2932,
      "Ġplugin": 2933,
      "ced": 2934,
      "lation": 2935,
      "Determ": 2936,
      "Ġpermission": 2937,
      "ULL": 2938,
      "Ġtile": 2939,
      "Ġdialog": 2940,
      "ĠPrev": 2941,
      "ories": 2942,
      "Ġinterface": 2943,
      "Ġtokens": 2944,
      "DB": 2945,
      "ĠQual": 2946,
      "Ġretrie": 2947,
      "ĠGlobal": 2948,
      "Ġattach": 2949,
      "Ġns": 2950,
      "ĠBitmap": 2951,
      "Ġmeta": 2952,
      "ĠSchedule": 2953,
      "Ġbr": 2954,
      "Ġcell": 2955,
      "Type": 2956,
      "ĠEqual": 2957,
      "Ġarr": 2958,
      "ym": 2959,
      "iter": 2960,
      "aly": 2961,
      "Ġnotification": 2962,
      "ĠRest": 2963,
      "Build": 2964,
      "Ġcause": 2965,
      "arg": 2966,
      "ĠOperator": 2967,
      "Ġdst": 2968,
      "ĠWord": 2969,
      "Ġends": 2970,
      "Tr": 2971,
      "ĠTile": 2972,
      "ĠWidget": 2973,
      "QU": 2974,
      "Ġtimestamp": 2975,
      "Method": 2976,
      "ĠLen": 2977,
      "Ġproduct": 2978,
      "Ġregistered": 2979,
      "ĠDest": 2980,
      "Ġloader": 2981,
      "aps": 2982,
      "ĠPag": 2983,
      "Ġdirect": 2984,
      "ĠProgress": 2985,
      "ĠDay": 2986,
      "ĠBind": 2987,
      "Ġlanguage": 2988,
      "known": 2989,
      "ily": 2990,
      "ifiers": 2991,
      "ĠCOM": 2992,
      "Ġchain": 2993,
      "Ġcs": 2994,
      "ĠScreen": 2995,
      "SL": 2996,
      "Ġcolumns": 2997,
      "space": 2998,
      "Ġ'\\": 2999,
      "respon": 3000,
      "Ġpush": 3001,
      "Ġschedule": 3002,
      "ĠPack": 3003,
      "Ġmerge": 3004,
      "Ġvirtual": 3005,
      "anch": 3006,
      "Ġcls": 3007,
      "Ġpayload": 3008,
      "Ġenabled": 3009,
      "plies": 3010,
      "Ġzip": 3011,
      "ram": 3012,
      "cer": 3013,
      "Par": 3014,
      "ĠChanged": 3015,
      "ĠProcessor": 3016,
      "Ġmapper": 3017,
      "ORM": 3018,
      "Ġsignature": 3019,
      "patch": 3020,
      "ONE": 3021,
      "atalog": 3022,
      "Ġinterval": 3023,
      "ĠMsg": 3024,
      "btain": 3025,
      "ĠCannot": 3026,
      "ĠPublic": 3027,
      "ĠReport": 3028,
      "other": 3029,
      "ECON": 3030,
      "ĠConv": 3031,
      "Ġexecution": 3032,
      "copy": 3033,
      "ĠCompletable": 3034,
      "Ġcontents": 3035,
      "Ġesc": 3036,
      "ĠSecond": 3037,
      "ĠATT": 3038,
      "Ġidentifier": 3039,
      "ĠActive": 3040,
      "Ġenv": 3041,
      "ĠCONT": 3042,
      "Ġbot": 3043,
      "ĠVisible": 3044,
      "Ġbucket": 3045,
      "iler": 3046,
      "ĠOne": 3047,
      "ĠPartition": 3048,
      "ĠINSTAN": 3049,
      "sc": 3050,
      "Ġmulti": 3051,
      "ĠStep": 3052,
      "Ġconstructor": 3053,
      "ĠBinary": 3054,
      "ĠLayer": 3055,
      "Ġactivity": 3056,
      "UP": 3057,
      "Ġconfigured": 3058,
      "ense": 3059,
      "INE": 3060,
      "chive": 3061,
      "ĠEdge": 3062,
      "ĠTransformer": 3063,
      "Ġcached": 3064,
      "ĠCapacity": 3065,
      "tra": 3066,
      "Per": 3067,
      "Ġday": 3068,
      "ĠDescribe": 3069,
      "Ġcursor": 3070,
      "ipeline": 3071,
      "ĠSyn": 3072,
      "Ġwithout": 3073,
      "VER": 3074,
      "Ġsocket": 3075,
      "ĠDriver": 3076,
      "Ġcontaining": 3077,
      "Reg": 3078,
      "Ġspace": 3079,
      "ĠKind": 3080,
      "ĠMIN": 3081,
      "Ġbl": 3082,
      "ĠTimestamp": 3083,
      "OC": 3084,
      "Ġsec": 3085,
      "Ġcorrespon": 3086,
      "Ġlayer": 3087,
      "ĠSIZE": 3088,
      "ERSION": 3089,
      "ĠRect": 3090,
      "Ġrelation": 3091,
      "ĠAN": 3092,
      "Ġqual": 3093,
      "ĠDes": 3094,
      "eer": 3095,
      "ĠRows": 3096,
      "Reads": 3097,
      "ĠCommon": 3098,
      "Ġcharset": 3099,
      "iple": 3100,
      "Ġmaximum": 3101,
      "ĠPOS": 3102,
      "Ġbox": 3103,
      "Ġfiltered": 3104,
      "ĠTAG": 3105,
      "ĠDown": 3106,
      "olyg": 3107,
      "Ġcons": 3108,
      "olygon": 3109,
      "ĠInvocation": 3110,
      "Ġpoints": 3111,
      "ĠAnim": 3112,
      "ten": 3113,
      "Ġnow": 3114,
      "asure": 3115,
      "Ġshutdown": 3116,
      "ĠSpecification": 3117,
      "Ġhtml": 3118,
      "ĠFixed": 3119,
      "Ġreceiv": 3120,
      "URI": 3121,
      "ORT": 3122,
      "Ġtrack": 3123,
      "Ġowner": 3124,
      "Ġinteger": 3125,
      "ĠAlgorithm": 3126,
      "ĠIntent": 3127,
      "ĠDimension": 3128,
      "Ġarraycopy": 3129,
      "Ġcomplete": 3130,
      "Ġanother": 3131,
      "ep": 3132,
      "ĠSC": 3133,
      "ĠBinding": 3134,
      "ĠThis": 3135,
      "anization": 3136,
      "ĠUS": 3137,
      "Ġocc": 3138,
      "Ġparts": 3139,
      "Ġcalcul": 3140,
      "ĠSorted": 3141,
      "ume": 3142,
      "ĠPOST": 3143,
      "ĠTemp": 3144,
      "ĠAvailable": 3145,
      "ĠUI": 3146,
      "ĠDiscount": 3147,
      "ĠSpace": 3148,
      "Ġmessages": 3149,
      "istics": 3150,
      "ĠSerializer": 3151,
      "ĠEM": 3152,
      "ely": 3153,
      "agement": 3154,
      "vailability": 3155,
      "ĠManaged": 3156,
      "Ġdisc": 3157,
      "struction": 3158,
      "Ġunm": 3159,
      "ĠSuper": 3160,
      "sw": 3161,
      "faces": 3162,
      "Ġgeometry": 3163,
      "ĠDirect": 3164,
      "db": 3165,
      "Ġmanager": 3166,
      "imate": 3167,
      "adi": 3168,
      "ĠWait": 3169,
      "Ġchunk": 3170,
      "Ġmedia": 3171,
      "ĠJoin": 3172,
      "Ġmy": 3173,
      "loud": 3174,
      "Ġstep": 3175,
      "Ġexpr": 3176,
      "ĠMonitor": 3177,
      "Ġroute": 3178,
      "roll": 3179,
      "Ġrepresentation": 3180,
      "ĠOwner": 3181,
      "Ġsuccess": 3182,
      "ĠIdentity": 3183,
      "ao": 3184,
      "ĠTick": 3185,
      "Ġsecurity": 3186,
      "ĠRaw": 3187,
      "andlers": 3188,
      "Ġicon": 3189,
      "oordinates": 3190,
      "Ġadditional": 3191,
      "ĠSupplier": 3192,
      "encies": 3193,
      "Ġrelative": 3194,
      "Ġnamed": 3195,
      "Ġcommit": 3196,
      "onical": 3197,
      "Ġconcat": 3198,
      "Ġsite": 3199,
      "Ġdesc": 3200,
      "Ġenvironment": 3201,
      "ĠAttr": 3202,
      "ipher": 3203,
      "ĠMetrics": 3204,
      "Ġclone": 3205,
      "ĠEdit": 3206,
      "Ġshape": 3207,
      "ĠStats": 3208,
      "ĠCould": 3209,
      "ĠTitle": 3210,
      "ĠSER": 3211,
      "istration": 3212,
      "mbed": 3213,
      "Ġpublish": 3214,
      "aj": 3215,
      "Perform": 3216,
      "ĠCredentials": 3217,
      "ĠAC": 3218,
      "Ġlayout": 3219,
      "ĠJo": 3220,
      "ote": 3221,
      "olution": 3222,
      "ĠSelected": 3223,
      "Ġgoogle": 3224,
      "Ġenum": 3225,
      "ĠShared": 3226,
      "Ġglobal": 3227,
      "Ġrespon": 3228,
      "achine": 3229,
      "Ġnotify": 3230,
      "sible": 3231,
      "Load": 3232,
      "Ġthere": 3233,
      "lip": 3234,
      "ifiable": 3235,
      "ma": 3236,
      "ĠChars": 3237,
      "ĠConstraint": 3238,
      "IVE": 3239,
      "Ġhigh": 3240,
      "vh": 3241,
      "Ġpoll": 3242,
      "ibr": 3243,
      "ĠSection": 3244,
      "Ġmore": 3245,
      "JS": 3246,
      "tom": 3247,
      "ĠCookie": 3248,
      "iteral": 3249,
      "Ġconverter": 3250,
      "Ġadded": 3251,
      "ĠUsage": 3252,
      "Ġamount": 3253,
      "ĠStrings": 3254,
      "ferred": 3255,
      "Ġids": 3256,
      "ĠPaths": 3257,
      "ecurs": 3258,
      "ĠINSTANCE": 3259,
      "ention": 3260,
      "ucer": 3261,
      "OS": 3262,
      "Ġaddres": 3263,
      "oice": 3264,
      "ĠVol": 3265,
      "ATA": 3266,
      "ĠIns": 3267,
      "ĠCharset": 3268,
      "ĠExternal": 3269,
      "Ġman": 3270,
      "ĠInformation": 3271,
      "Ġrepository": 3272,
      "ĠSecret": 3273,
      "Ġstats": 3274,
      "TML": 3275,
      "ĠAttachment": 3276,
      "Ġfolder": 3277,
      "ĠPROPERT": 3278,
      "ĠSH": 3279,
      "feray": 3280,
      "ift": 3281,
      "ĠPrincipal": 3282,
      "ĠSw": 3283,
      "ĠTimer": 3284,
      "Ġabs": 3285,
      "Initial": 3286,
      "Ġliferay": 3287,
      "Ġdimension": 3288,
      "ipping": 3289,
      "tax": 3290,
      "PAR": 3291,
      "Ġdiv": 3292,
      "Ġsymbol": 3293,
      "ĠArtifact": 3294,
      "ĠINF": 3295,
      "idd": 3296,
      "ITH": 3297,
      "ĠPREF": 3298,
      "Ġunlock": 3299,
      "ĠVertex": 3300,
      "adding": 3301,
      "ĠPeriod": 3302,
      "coder": 3303,
      "Ġdbc": 3304,
      "Ġunique": 3305,
      "amily": 3306,
      "ĠBasic": 3307,
      "Ġiterable": 3308,
      "Ġchars": 3309,
      "ĠSql": 3310,
      "velope": 3311,
      "ĠHistory": 3312,
      "angle": 3313,
      "ĠUpper": 3314,
      "odec": 3315,
      "box": 3316,
      "oles": 3317,
      "Remove": 3318,
      "Ġreal": 3319,
      "Ġfill": 3320,
      "ĠLanguage": 3321,
      "ane": 3322,
      "Ġmove": 3323,
      "ĠGrid": 3324,
      "Ġrunning": 3325,
      "ĠImport": 3326,
      "vs": 3327,
      "Ġinstant": 3328,
      "ĠLat": 3329,
      "ĠENT": 3330,
      "med": 3331,
      "ĠRate": 3332,
      "Ġsubject": 3333,
      "ĠZip": 3334,
      "ampl": 3335,
      "Ġbinary": 3336,
      "Ġlower": 3337,
      "Ġcookie": 3338,
      "ĠDestination": 3339,
      "Ġservlet": 3340,
      "Ġsl": 3341,
      "Ġevents": 3342,
      "com": 3343,
      "ATOR": 3344,
      "Ġedge": 3345,
      "ĠIdx": 3346,
      "Ġconnect": 3347,
      "EXT": 3348,
      "hs": 3349,
      "ĠExpr": 3350,
      "ĠIP": 3351,
      "ĠInstances": 3352,
      "ĠValidator": 3353,
      "Ġmonitor": 3354,
      "Ġeng": 3355,
      "Ġdelta": 3356,
      "Exec": 3357,
      "type": 3358,
      "orter": 3359,
      "ĠAssert": 3360,
      "PTION": 3361,
      "ĠVERSION": 3362,
      "ĠEach": 3363,
      "Ġprogress": 3364,
      "ires": 3365,
      "ĠFind": 3366,
      "Ġcharacters": 3367,
      "Ġdat": 3368,
      "Ġrelease": 3369,
      "ĠColumns": 3370,
      "strain": 3371,
      "ACK": 3372,
      "FS": 3373,
      "ĠSTR": 3374,
      "olation": 3375,
      "ĠArguments": 3376,
      "ĠInet": 3377,
      "ĠFailure": 3378,
      "change": 3379,
      "fers": 3380,
      "Ġrs": 3381,
      "Ġprod": 3382,
      "OKEN": 3383,
      "Ġmonth": 3384,
      "ĠSync": 3385,
      "Ġsubscri": 3386,
      "VAL": 3387,
      "ĠSlot": 3388,
      "ĠDif": 3389,
      "ĠChunk": 3390,
      "cp": 3391,
      "Ġconv": 3392,
      "uce": 3393,
      "ded": 3394,
      "Ġzone": 3395,
      "ware": 3396,
      "Ġtab": 3397,
      "ĠEvalu": 3398,
      "ĠConf": 3399,
      "Ġdeterm": 3400,
      "Ġjar": 3401,
      "avig": 3402,
      "list": 3403,
      "ACT": 3404,
      "Ġsuffix": 3405,
      "ĠProp": 3406,
      "ĠBund": 3407,
      "ĠValidate": 3408,
      "inglet": 3409,
      "Ġsets": 3410,
      "Ġsection": 3411,
      "ecess": 3412,
      "ump": 3413,
      "ĠTool": 3414,
      "ingleton": 3415,
      "ifies": 3416,
      "ĠAp": 3417,
      "Ġcurr": 3418,
      "Ġgroups": 3419,
      "overy": 3420,
      "Ġstrings": 3421,
      "Ġunset": 3422,
      "ĠNative": 3423,
      "pload": 3424,
      "Ġent": 3425,
      "ider": 3426,
      "ĠInstant": 3427,
      "ĠFragment": 3428,
      "App": 3429,
      "ker": 3430,
      "ĠCOL": 3431,
      "Ġbits": 3432,
      "Ġflags": 3433,
      "Writes": 3434,
      "Ġprepare": 3435,
      "Write": 3436,
      "Ġfail": 3437,
      "ĠBr": 3438,
      "Ġpersist": 3439,
      "Ġsupported": 3440,
      "Ġmembers": 3441,
      "ĠAfter": 3442,
      "ĠOvh": 3443,
      "Ġenable": 3444,
      "ĠSelector": 3445,
      "ores": 3446,
      "ĠBar": 3447,
      "ĠInf": 3448,
      "reshold": 3449,
      "ĠSAX": 3450,
      "PTY": 3451,
      "ses": 3452,
      "bserver": 3453,
      "ĠRemove": 3454,
      "ollow": 3455,
      "used": 3456,
      "aun": 3457,
      "Ġfs": 3458,
      "ĠFont": 3459,
      "OP": 3460,
      "Ġcertificate": 3461,
      "Ġagent": 3462,
      "ĠNULL": 3463,
      "Ġcorresponding": 3464,
      "Ġiss": 3465,
      "ĠMET": 3466,
      "ship": 3467,
      "alth": 3468,
      "Ġcreating": 3469,
      "ke": 3470,
      "pose": 3471,
      "Ġcert": 3472,
      "sertion": 3473,
      "Ġengine": 3474,
      "ĠClick": 3475,
      "ĠDependency": 3476,
      "09": 3477,
      "Ġuntil": 3478,
      "ĠRO": 3479,
      "ĠOk": 3480,
      "Ġpresent": 3481,
      "ĠEMPTY": 3482,
      "Ġcomponents": 3483,
      "Ġrequested": 3484,
      "ĠCompar": 3485,
      "Ġaw": 3486,
      "Ġprob": 3487,
      "Ġ>>>": 3488,
      "Ġaud": 3489,
      "Ġfinish": 3490,
      "Ġalgorithm": 3491,
      "Start": 3492,
      "ĠPrimitive": 3493,
      "ights": 3494,
      "Ġcontroller": 3495,
      "ĠBus": 3496,
      "elp": 3497,
      "hav": 3498,
      "ĠStop": 3499,
      "Ġartifact": 3500,
      "Ġignore": 3501,
      "ĠCursor": 3502,
      "ĠMore": 3503,
      "Ġcalendar": 3504,
      "Ġabout": 3505,
      "imiter": 3506,
      "ierarch": 3507,
      "If": 3508,
      "ior": 3509,
      "eration": 3510,
      "ĠFast": 3511,
      "Ġupdateresource": 3512,
      "ĠEvents": 3513,
      "Ġ3": 3514,
      "ĠDeployment": 3515,
      "Ġperiod": 3516,
      "Ġsync": 3517,
      "licit": 3518,
      "Ġsimple": 3519,
      "ĠTest": 3520,
      "As": 3521,
      "Ġsent": 3522,
      "At": 3523,
      "Ġyear": 3524,
      "key": 3525,
      "ffect": 3526,
      "Ġupload": 3527,
      "Ġremaining": 3528,
      "SC": 3529,
      "ĠGeo": 3530,
      "Ġshared": 3531,
      "just": 3532,
      "iag": 3533,
      "Ġiv": 3534,
      "ĠServices": 3535,
      "ĠBefore": 3536,
      "posite": 3537,
      "ĠMonth": 3538,
      "Stream": 3539,
      "ho": 3540,
      "ĠIncl": 3541,
      "Ġcf": 3542,
      "ART": 3543,
      "Ġinstances": 3544,
      "ĠCore": 3545,
      "ĠLoc": 3546,
      "ĠRequired": 3547,
      "ĠCor": 3548,
      "ighb": 3549,
      "ĠHex": 3550,
      "Deletes": 3551,
      "ĠAvailability": 3552,
      "Ġvalidation": 3553,
      "rough": 3554,
      "ĠRight": 3555,
      "tegr": 3556,
      "group": 3557,
      "ither": 3558,
      "Ġremoved": 3559,
      "ĠDat": 3560,
      "DD": 3561,
      "Ġev": 3562,
      "ĠScal": 3563,
      "ĠOrigin": 3564,
      "straints": 3565,
      "wise": 3566,
      "pha": 3567,
      "Ġvault": 3568,
      "ries": 3569,
      "ĠGu": 3570,
      "Ġallowed": 3571,
      "ĠAm": 3572,
      "ĠWorker": 3573,
      "Ġsupport": 3574,
      "ĠDistance": 3575,
      "ĠCoordinate": 3576,
      "Ġupdates": 3577,
      "ĠStructure": 3578,
      "ĠBY": 3579,
      "aunch": 3580,
      "ĠUse": 3581,
      "Ġincrement": 3582,
      "swer": 3583,
      "Ġmillis": 3584,
      "ĠOrg": 3585,
      "ĠSelection": 3586,
      "iation": 3587,
      "Ġplace": 3588,
      "Trans": 3589,
      "AIN": 3590,
      "ĠCurrency": 3591,
      "Ġhex": 3592,
      "plex": 3593,
      "ĠAggreg": 3594,
      "ĠSplit": 3595,
      "Ġflow": 3596,
      "ĠTab": 3597,
      "ĠTax": 3598,
      "ĠWITH": 3599,
      "Ġdelegate": 3600,
      "ĠStatic": 3601,
      "Ġbitmap": 3602,
      "ĠAL": 3603,
      "Ġident": 3604,
      "ĠDetail": 3605,
      "gative": 3606,
      "ĠRegister": 3607,
      "ĠCountry": 3608,
      "ĠNe": 3609,
      "ĠStandard": 3610,
      "ĠCause": 3611,
      "Ġupper": 3612,
      "ĠBits": 3613,
      "Ġalloc": 3614,
      "JECT": 3615,
      "for": 3616,
      "mark": 3617,
      "Ġdelay": 3618,
      "Ġts": 3619,
      "Ġvariables": 3620,
      "Ġretrieve": 3621,
      "ĠPREFIX": 3622,
      "ince": 3623,
      "Ġcategory": 3624,
      "Ġinner": 3625,
      "da": 3626,
      "ene": 3627,
      "Ġmemory": 3628,
      "ĠVisitor": 3629,
      "Ġvpn": 3630,
      "Un": 3631,
      "ĠBucket": 3632,
      "ĠBlank": 3633,
      "ĠShape": 3634,
      "ĠPROPERTY": 3635,
      "atform": 3636,
      "ĠCommit": 3637,
      "Ġads": 3638,
      "uring": 3639,
      "ĠClosed": 3640,
      "Ġchanged": 3641,
      "Ġsorted": 3642,
      "Ġcmd": 3643,
      "ĠNONE": 3644,
      "ĠFactor": 3645,
      "ĠProd": 3646,
      "urnal": 3647,
      "Def": 3648,
      "ulk": 3649,
      "Ġregex": 3650,
      "itespace": 3651,
      "Ġtrigger": 3652,
      "Ġcandidate": 3653,
      "ĠProps": 3654,
      "ĠTokens": 3655,
      "Ġok": 3656,
      "Ġdriver": 3657,
      "ayment": 3658,
      "ynchronous": 3659,
      "ĠAssignable": 3660,
      "201": 3661,
      "ross": 3662,
      "izable": 3663,
      "ĠLogging": 3664,
      "ĠDeclared": 3665,
      "ĠInit": 3666,
      "To": 3667,
      "ernel": 3668,
      "ĠPrimary": 3669,
      "ĠSpan": 3670,
      "rite": 3671,
      "ĠPARAM": 3672,
      "ĠUpload": 3673,
      "irc": 3674,
      "formed": 3675,
      "troy": 3676,
      "Ġtuple": 3677,
      "ĠExists": 3678,
      "ICATION": 3679,
      "OURCE": 3680,
      "jo": 3681,
      "Ġbounds": 3682,
      "ested": 3683,
      "ĠUnique": 3684,
      "cent": 3685,
      "ĠHTML": 3686,
      "Ġcomparator": 3687,
      "Ġerrors": 3688,
      "eep": 3689,
      "ĠSeq": 3690,
      "vserver": 3691,
      "nect": 3692,
      "ĠLOC": 3693,
      "11": 3694,
      "Ġ^": 3695,
      "Ġii": 3696,
      "ĠBi": 3697,
      "ĠHE": 3698,
      "ĠDrawable": 3699,
      "Ġstructure": 3700,
      "Ġdim": 3701,
      "Ġexternal": 3702,
      "ibrary": 3703,
      "Ġsm": 3704,
      "Ġsnapshot": 3705,
      "ĠPayload": 3706,
      "TERN": 3707,
      "ĠGL": 3708,
      "ifest": 3709,
      "ĠENTITY": 3710,
      "notated": 3711,
      "Ġtransl": 3712,
      "Ġslot": 3713,
      "Ġ4": 3714,
      "Ġedit": 3715,
      "Ġcapacity": 3716,
      "Ġstarting": 3717,
      "ĠInterceptor": 3718,
      "Ġmetrics": 3719,
      "ĠAuto": 3720,
      "adius": 3721,
      "ĠUnknown": 3722,
      "Ġverify": 3723,
      "ĠAllow": 3724,
      "Ġjust": 3725,
      "Finds": 3726,
      "Generates": 3727,
      "Ġdns": 3728,
      "isters": 3729,
      "ĠMembers": 3730,
      "ACH": 3731,
      "Ġdependency": 3732,
      "Ġgrid": 3733,
      "ĠWatch": 3734,
      "umul": 3735,
      "Ġcurrently": 3736,
      "table": 3737,
      "Ġpixel": 3738,
      "Ġstmt": 3739,
      "Calcul": 3740,
      "Helper": 3741,
      "On": 3742,
      "ĠEm": 3743,
      "arses": 3744,
      "ĠDev": 3745,
      "Ġscreen": 3746,
      "Ġbest": 3747,
      "ĠTasks": 3748,
      "Ġthrowable": 3749,
      "pared": 3750,
      "alle": 3751,
      "uplic": 3752,
      "Ġpaths": 3753,
      "Log": 3754,
      "oder": 3755,
      "ĠMask": 3756,
      "Dec": 3757,
      "Ġoperator": 3758,
      "ĠAuthorization": 3759,
      "Retrieve": 3760,
      "ĠDELE": 3761,
      "XML": 3762,
      "semb": 3763,
      "ĠConc": 3764,
      "Ġclosed": 3765,
      "ds": 3766,
      "ins": 3767,
      "ĠSP": 3768,
      "Map": 3769,
      "Ġdynamic": 3770,
      ".'": 3771,
      "Ġconstruct": 3772,
      "Ġ'.'": 3773,
      "ĠON": 3774,
      "eric": 3775,
      "amb": 3776,
      "Ġaggreg": 3777,
      "Ġcenter": 3778,
      "parse": 3779,
      "ĠRetry": 3780,
      "ĠSTAT": 3781,
      "Ġvertex": 3782,
      "Ġrot": 3783,
      "ĠYear": 3784,
      "Ġcredentials": 3785,
      "ĠLab": 3786,
      "ĠRet": 3787,
      "ORY": 3788,
      "MS": 3789,
      "Ġmask": 3790,
      "Parses": 3791,
      "Ġmanaged": 3792,
      "ĠEditor": 3793,
      "allel": 3794,
      "ĠOR": 3795,
      "ĠJs": 3796,
      "ĠIss": 3797,
      "ĠDataset": 3798,
      "Ġtool": 3799,
      "ĠVariables": 3800,
      "Ġfactor": 3801,
      "usive": 3802,
      "akes": 3803,
      "rect": 3804,
      "Ġsetup": 3805,
      "Ġcomb": 3806,
      "rypt": 3807,
      "Ġoptional": 3808,
      "wn": 3809,
      "ov": 3810,
      "Ġsome": 3811,
      "UTE": 3812,
      "ideo": 3813,
      "CTION": 3814,
      "ording": 3815,
      "Ġcomment": 3816,
      "ĠEND": 3817,
      "Ġbond": 3818,
      "ux": 3819,
      "ĠSid": 3820,
      "Ġsim": 3821,
      "Ġmenu": 3822,
      "Ġlang": 3823,
      "ĠManagement": 3824,
      "ĠDeleted": 3825,
      "Ġauto": 3826,
      "ĠPreference": 3827,
      "Ġruntime": 3828,
      "ĠFILE": 3829,
      "ĠComment": 3830,
      "Ġencry": 3831,
      "ĠIS": 3832,
      "Parse": 3833,
      "eriv": 3834,
      "ula": 3835,
      "Ġpartic": 3836,
      "ECONDS": 3837,
      "ĠSl": 3838,
      "ĠClosure": 3839,
      "ecessary": 3840,
      "Update": 3841,
      "Ġjav": 3842,
      "Ġsample": 3843,
      "Ġretry": 3844,
      "ĠDelay": 3845,
      "AST": 3846,
      "Ġdist": 3847,
      "Ġwrapper": 3848,
      "Ġdigest": 3849,
      "pings": 3850,
      "odifiable": 3851,
      "ĠSubject": 3852,
      "Ġwarning": 3853,
      "ĠgroupId": 3854,
      "Config": 3855,
      "CP": 3856,
      "Ġrules": 3857,
      "Ġca": 3858,
      "bound": 3859,
      "Ġcast": 3860,
      "stit": 3861,
      "ĠComplete": 3862,
      "ĠAssignment": 3863,
      "Ġimplementation": 3864,
      "ĠReceiv": 3865,
      "Ġyou": 3866,
      "cast": 3867,
      "ra": 3868,
      "Extract": 3869,
      "ues": 3870,
      "ĠMutable": 3871,
      "ĠAR": 3872,
      "ĠDao": 3873,
      "ĠExcl": 3874,
      "enant": 3875,
      "Ġround": 3876,
      "ogn": 3877,
      "Ġidentity": 3878,
      "Ġparsed": 3879,
      "FIG": 3880,
      "ĠCallable": 3881,
      "Ġaccording": 3882,
      "hip": 3883,
      "aging": 3884,
      "Ġpossible": 3885,
      "ĠSTRING": 3886,
      "Ġfree": 3887,
      "ĠExport": 3888,
      "ifec": 3889,
      "Ġexport": 3890,
      "Ġgeneric": 3891,
      "Ġpanel": 3892,
      "Object": 3893,
      "Ġdepth": 3894,
      "END": 3895,
      "ience": 3896,
      "ĠDeclaration": 3897,
      "book": 3898,
      "Ġpk": 3899,
      "Ġdot": 3900,
      "Ġconstant": 3901,
      "putes": 3902,
      "ĠBackup": 3903,
      "ĠBundler": 3904,
      "ĠPaged": 3905,
      "ILL": 3906,
      "Ġinvok": 3907,
      "Ġtimer": 3908,
      "Ġserialize": 3909,
      "ĠJC": 3910,
      "istog": 3911,
      "Ġseconds": 3912,
      "ifecycle": 3913,
      "Ġeither": 3914,
      "uted": 3915,
      "ĠJar": 3916,
      "mbedded": 3917,
      "Run": 3918,
      "Ġemit": 3919,
      "Ġconfigure": 3920,
      "SET": 3921,
      "uit": 3922,
      "Ġcoordinates": 3923,
      "ĠMain": 3924,
      "ĠPATH": 3925,
      "/'": 3926,
      "Ġtail": 3927,
      "Ġcm": 3928,
      "ĠFL": 3929,
      "ators": 3930,
      "Ġ'/'": 3931,
      "Ġlogin": 3932,
      "MP": 3933,
      "Ġconsum": 3934,
      "Ġplay": 3935,
      "Ġrefresh": 3936,
      "ĠSyntax": 3937,
      "yles": 3938,
      "Ġpending": 3939,
      "Ġlines": 3940,
      "ints": 3941,
      "ĠSeparator": 3942,
      "ism": 3943,
      "Exception": 3944,
      "Ġdeserial": 3945,
      "Ġmodified": 3946,
      "ose": 3947,
      "Ġthrough": 3948,
      "Ġpc": 3949,
      "cal": 3950,
      "Ġmultiple": 3951,
      "ĠLists": 3952,
      "Ġ-=": 3953,
      "Determines": 3954,
      "amples": 3955,
      "ĠSD": 3956,
      "ĠgetX": 3957,
      "ĠAsset": 3958,
      "pressed": 3959,
      "Ġprincipal": 3960,
      "ĠCollector": 3961,
      "ĠBeta": 3962,
      "ĠStage": 3963,
      "ĠRegistration": 3964,
      "RIB": 3965,
      "ĠUSER": 3966,
      "ants": 3967,
      "Ġstored": 3968,
      "Ġanim": 3969,
      "ĠFIEL": 3970,
      "CESS": 3971,
      "Ġign": 3972,
      "ĠRules": 3973,
      "amer": 3974,
      "Ġcalculate": 3975,
      "Sh": 3976,
      "For": 3977,
      "Ġpopul": 3978,
      "AIL": 3979,
      "VI": 3980,
      "Valid": 3981,
      "Ġsig": 3982,
      "IAL": 3983,
      "ĠPoints": 3984,
      "Ġupdated": 3985,
      "Ġpriority": 3986,
      "Ġelem": 3987,
      "ĠErrors": 3988,
      "ĠSTART": 3989,
      "Ġforward": 3990,
      "Ġsetting": 3991,
      "ĠExtract": 3992,
      "Ġflat": 3993,
      "ĠMachine": 3994,
      "ĠNormal": 3995,
      "JSON": 3996,
      "ling": 3997,
      "ĠTIME": 3998,
      "Ġemail": 3999,
      "ĠAssoci": 4000,
      "ĠQuot": 4001,
      "ĠBond": 4002,
      "Ġselection": 4003,
      "alyz": 4004,
      "ful": 4005,
      "ĠDs": 4006,
      "ĠBro": 4007,
      "ĠTransport": 4008,
      "Ġws": 4009,
      "Ġzero": 4010,
      "Ġadapter": 4011,
      "Ġoccurr": 4012,
      "Ġasync": 4013,
      "istogram": 4014,
      "Form": 4015,
      "Ġwidget": 4016,
      "Ġeditor": 4017,
      "Ġlow": 4018,
      "ref": 4019,
      "Ġtick": 4020,
      "Ġconstraint": 4021,
      "ĠJAX": 4022,
      "lying": 4023,
      "uil": 4024,
      "ĠLogin": 4025,
      "Ġindic": 4026,
      "Ġsubmit": 4027,
      "ĠUpd": 4028,
      "AND": 4029,
      "ĠLEN": 4030,
      "Ġexpand": 4031,
      "gram": 4032,
      "ĠPrivate": 4033,
      "ĠIp": 4034,
      "Ġstandard": 4035,
      "ĠMeasure": 4036,
      "Ġfragment": 4037,
      "ĠSetting": 4038,
      "Ġscal": 4039,
      "ĠMESS": 4040,
      "ĠDisk": 4041,
      "ĠAnnotations": 4042,
      "Ġsegments": 4043,
      "Call": 4044,
      "ĠEst": 4045,
      "Ġescape": 4046,
      "Ġcommon": 4047,
      "Ġorigin": 4048,
      "ĠPermissions": 4049,
      "==": 4050,
      "ĠMAP": 4051,
      "azy": 4052,
      "ceed": 4053,
      "rivile": 4054,
      "OB": 4055,
      "rt": 4056,
      "Ġtheir": 4057,
      "Ġintent": 4058,
      "Ġmd": 4059,
      "ĠHub": 4060,
      "eek": 4061,
      "Ġtasks": 4062,
      "ambda": 4063,
      "OUT": 4064,
      "fl": 4065,
      "ASE": 4066,
      "uilt": 4067,
      "Ġds": 4068,
      "Ġjo": 4069,
      "Ġdiff": 4070,
      "Pr": 4071,
      "ĠHead": 4072,
      "istic": 4073,
      "Ġactiv": 4074,
      "aved": 4075,
      "Ġrect": 4076,
      "ĠArn": 4077,
      "PARATOR": 4078,
      "Ġextra": 4079,
      "2018": 4080,
      "ĠTH": 4081,
      "Ġinject": 4082,
      "Ġfeatures": 4083,
      "Ġsingleton": 4084,
      "Ġkind": 4085,
      "ĠLIST": 4086,
      "ĠDynamic": 4087,
      "tribution": 4088,
      "ĠOP": 4089,
      "rowser": 4090,
      "ORE": 4091,
      "ĠConnect": 4092,
      "String": 4093,
      "esources": 4094,
      "ĠCancel": 4095,
      "Given": 4096,
      "Ġhelper": 4097,
      "ĠPlay": 4098,
      "Ġperson": 4099,
      "ĠMime": 4100,
      "Ġlb": 4101,
      "Ġanswer": 4102,
      "RES": 4103,
      "ĠTrigger": 4104,
      "ASK": 4105,
      "Ġnormalize": 4106,
      "Ġcompile": 4107,
      "ootstr": 4108,
      "ĠDELETE": 4109,
      "Ġtyped": 4110,
      "Ġbb": 4111,
      "board": 4112,
      "Ġsym": 4113,
      "Ġobserv": 4114,
      "aml": 4115,
      "ĠFORM": 4116,
      "dbc": 4117,
      "ĠOrganization": 4118,
      "Ġminimum": 4119,
      "Factory": 4120,
      "ĠTx": 4121,
      "ĠPixel": 4122,
      "lice": 4123,
      "pected": 4124,
      "Ġscheme": 4125,
      "ĠAz": 4126,
      "ours": 4127,
      "ĠMs": 4128,
      "Computes": 4129,
      "Ġevaluate": 4130,
      "vm": 4131,
      "ĠSSL": 4132,
      "Ġobtain": 4133,
      "ĠFlag": 4134,
      "Ġunmodifiable": 4135,
      "Ġselector": 4136,
      "ĠEmail": 4137,
      "opp": 4138,
      "Ġdeployment": 4139,
      "ĠRequests": 4140,
      "Ġclasspath": 4141,
      "ving": 4142,
      "ĠCU": 4143,
      "Construct": 4144,
      "ANG": 4145,
      "Ġvisitor": 4146,
      "ĠCached": 4147,
      "Ġvert": 4148,
      "ĠTri": 4149,
      "ĠINT": 4150,
      "ĠFlags": 4151,
      "Ġsn": 4152,
      "Ġpt": 4153,
      "ĠDT": 4154,
      "Ġfilters": 4155,
      "Ġspan": 4156,
      "Ġworker": 4157,
      "ootstrap": 4158,
      "gers": 4159,
      "Ġperm": 4160,
      "Ġbro": 4161,
      "ĠDOM": 4162,
      "ĠPlace": 4163,
      "Ġfont": 4164,
      "ĠAxis": 4165,
      "Ġtransport": 4166,
      "Ġgenerated": 4167,
      "ĠExpected": 4168,
      "Ġdone": 4169,
      "Ġotherwise": 4170,
      "Ġflag": 4171,
      "Ġsafe": 4172,
      "ROUP": 4173,
      "ĠBackground": 4174,
      "ĠDATA": 4175,
      "ĠMarker": 4176,
      "ĠSI": 4177,
      "ĠCloud": 4178,
      "ĠRout": 4179,
      "umb": 4180,
      "Ġreplacement": 4181,
      "Ġaddresource": 4182,
      "net": 4183,
      "Ġchanges": 4184,
      "Ġclosure": 4185,
      "ĠEnvelope": 4186,
      "house": 4187,
      "ĠHEAD": 4188,
      "ĠSafe": 4189,
      "andles": 4190,
      "Ġjs": 4191,
      "clos": 4192,
      "arehouse": 4193,
      "Ġcoll": 4194,
      "ĠSubscri": 4195,
      "ĠREQU": 4196,
      "ied": 4197,
      "uch": 4198,
      "Ġcn": 4199,
      "Ġgenerator": 4200,
      "Ġfailure": 4201,
      "apt": 4202,
      "Ġcriteria": 4203,
      "ech": 4204,
      "illing": 4205,
      "ĠNote": 4206,
      "quare": 4207,
      "ĠWeek": 4208,
      "Ap": 4209,
      "etty": 4210,
      "ĠCD": 4211,
      "ĠSm": 4212,
      "Ġindices": 4213,
      "ĠConversion": 4214,
      "Key": 4215,
      "UI": 4216,
      "nd": 4217,
      "Ġreturned": 4218,
      "ĠEncry": 4219,
      "ĠDigest": 4220,
      "Ġfollow": 4221,
      "ĠEV": 4222,
      "ĠBehav": 4223,
      "ĠPreferences": 4224,
      "anos": 4225,
      "Ġ|=": 4226,
      "ĠInsert": 4227,
      "UG": 4228,
      "Ġmaster": 4229,
      "gex": 4230,
      "GTH": 4231,
      "ĠOff": 4232,
      "ĠComponents": 4233,
      "Ġunderlying": 4234,
      "alformed": 4235,
      "Ġbus": 4236,
      "Ġsle": 4237,
      "ĠMILL": 4238,
      "ĠEncoder": 4239,
      "Ġattempt": 4240,
      "Ġagain": 4241,
      "Ġsources": 4242,
      "ĠTst": 4243,
      "ĠJAXB": 4244,
      "ĠCriteria": 4245,
      "Ġmat": 4246,
      "Ġele": 4247,
      "ĠCHAR": 4248,
      "Dis": 4249,
      "ĠPut": 4250,
      "ively": 4251,
      "ĠProt": 4252,
      "Ġbranch": 4253,
      "Value": 4254,
      "Ġ$": 4255,
      "serts": 4256,
      "very": 4257,
      "atible": 4258,
      "Ġrev": 4259,
      "IMIT": 4260,
      "Ġserializer": 4261,
      "ĠFIELD": 4262,
      "ĠChron": 4263,
      "Ġcb": 4264,
      "Ġvisible": 4265,
      "Ġannotations": 4266,
      "ĠDiff": 4267,
      "Ġscore": 4268,
      "Ġautom": 4269,
      "ases": 4270,
      "Ġdetails": 4271,
      "Ġioe": 4272,
      "ĠOpt": 4273,
      "ierarchy": 4274,
      "Not": 4275,
      "erms": 4276,
      "ĠLiteral": 4277,
      "ĠRunning": 4278,
      "ĠVisibility": 4279,
      "ĠExtensions": 4280,
      "Ġtempor": 4281,
      "Ġpermissions": 4282,
      "ĠProb": 4283,
      "igr": 4284,
      "ĠAttempt": 4285,
      "Ġweight": 4286,
      "ĠArchive": 4287,
      "rupt": 4288,
      "Ġbottom": 4289,
      "Ġsyn": 4290,
      "otal": 4291,
      "ĠWritable": 4292,
      "ĠRenderer": 4293,
      "bar": 4294,
      "Ġfixed": 4295,
      "ĠDirection": 4296,
      "Ġdelimiter": 4297,
      "ĠFin": 4298,
      "ĠREAD": 4299,
      "Ġco": 4300,
      "ictionary": 4301,
      "Performs": 4302,
      "Ġenter": 4303,
      "Ġprimitive": 4304,
      "roid": 4305,
      "ĠFilename": 4306,
      "Ġstrategy": 4307,
      "Ġsecret": 4308,
      "ĠReal": 4309,
      "ives": 4310,
      "ĠHealth": 4311,
      "card": 4312,
      "Ġangle": 4313,
      "oft": 4314,
      "ĠAdmin": 4315,
      "ĠMaj": 4316,
      "Ġbeing": 4317,
      "ĠEnumeration": 4318,
      "Qu": 4319,
      "ĠFac": 4320,
      "ORD": 4321,
      "ĠNa": 4322,
      "ĠQU": 4323,
      "Ġmapped": 4324,
      "ĠPER": 4325,
      "Ġvia": 4326,
      "olve": 4327,
      "ĠLENGTH": 4328,
      "ĠUP": 4329,
      "ĠReplace": 4330,
      "ĠWish": 4331,
      "tf": 4332,
      "ACHE": 4333,
      "Ġreason": 4334,
      "ĠGray": 4335,
      "Ġgu": 4336,
      "ĠTyped": 4337,
      "ĠAss": 4338,
      "Ġduring": 4339,
      "ĠIdent": 4340,
      "Ġcontained": 4341,
      "Ġresolver": 4342,
      "Ġreceived": 4343,
      "alys": 4344,
      "Ġforce": 4345,
      "ersation": 4346,
      "Ġsee": 4347,
      "ILE": 4348,
      "ĠPars": 4349,
      "ĠPerson": 4350,
      "ĠNE": 4351,
      "ĠForward": 4352,
      "signed": 4353,
      "Ġtimes": 4354,
      "vas": 4355,
      "ĠSEPARATOR": 4356,
      "Called": 4357,
      "ĠQualified": 4358,
      "ĠShipping": 4359,
      "Ġinters": 4360,
      "Ġcompleted": 4361,
      "Process": 4362,
      "AB": 4363,
      "astic": 4364,
      "dir": 4365,
      "alan": 4366,
      "ceive": 4367,
      "ategories": 4368,
      "register": 4369,
      "ĠMILLIS": 4370,
      "ĠCredential": 4371,
      "ĠCodec": 4372,
      "Ġresponses": 4373,
      "ĠComparable": 4374,
      "reater": 4375,
      "Generate": 4376,
      "Search": 4377,
      "wt": 4378,
      "ework": 4379,
      "ignment": 4380,
      "ĠOF": 4381,
      "ĠComplex": 4382,
      "ĠAppend": 4383,
      "Ġdispatch": 4384,
      "ĠConnected": 4385,
      "ĠPolygon": 4386,
      "Ġusage": 4387,
      "ĠStatistics": 4388,
      "perand": 4389,
      "Ġdisk": 4390,
      "CON": 4391,
      "aming": 4392,
      "ĠCons": 4393,
      "Ġresolved": 4394,
      "OWN": 4395,
      "zu": 4396,
      "ĠSY": 4397,
      "Ġknown": 4398,
      "Ġdisable": 4399,
      "ĠScheme": 4400,
      "Delete": 4401,
      "Ġlook": 4402,
      "ĠDecl": 4403,
      "PLICATION": 4404,
      "dap": 4405,
      "Request": 4406,
      "Ġexclud": 4407,
      "OUNT": 4408,
      "rag": 4409,
      "ĠAbs": 4410,
      "ĠNamed": 4411,
      "ĠINFO": 4412,
      "ĠAllowed": 4413,
      "alysis": 4414,
      "Ġuns": 4415,
      "ĠWorkflow": 4416,
      "Ġneighb": 4417,
      "Format": 4418,
      "509": 4419,
      "Ġdt": 4420,
      "ferent": 4421,
      "Ġalpha": 4422,
      "ĠMozu": 4423,
      "avigation": 4424,
      "log": 4425,
      "ĠFace": 4426,
      "ĠOB": 4427,
      "expected": 4428,
      "return": 4429,
      "ĠPipeline": 4430,
      "ĠMalformed": 4431,
      "quiv": 4432,
      "ĠComposite": 4433,
      "ĠCollectors": 4434,
      "Ġinside": 4435,
      "ĠTotal": 4436,
      "Ġoperations": 4437,
      "mediate": 4438,
      "aus": 4439,
      "ĠOps": 4440,
      "ĠSend": 4441,
      "Ġinstall": 4442,
      "RY": 4443,
      "ĠFetch": 4444,
      "Builds": 4445,
      "tegration": 4446,
      "Ġcurrency": 4447,
      "ĠPane": 4448,
      "ĠFamily": 4449,
      "ĠPublisher": 4450,
      "ĠSTATUS": 4451,
      "AV": 4452,
      "ĠTABLE": 4453,
      "Ġdataset": 4454,
      "ĠEncoded": 4455,
      "Ġformatted": 4456,
      "Replies": 4457,
      "words": 4458,
      "ĠPacket": 4459,
      "Ġreverse": 4460,
      "pect": 4461,
      "Ġrout": 4462,
      "ĠTO": 4463,
      "ĠWARN": 4464,
      "Ġseq": 4465,
      "Ġoverride": 4466,
      "ĠPriority": 4467,
      "ĠDIR": 4468,
      "ĠRegex": 4469,
      "Ġbuilding": 4470,
      "Ġinvocation": 4471,
      "Ġdownload": 4472,
      "Ġgets": 4473,
      "riend": 4474,
      "ĠVpn": 4475,
      "ĠWorkspace": 4476,
      "Ġcatalog": 4477,
      "Ġcipher": 4478,
      "ik": 4479,
      "manager": 4480,
      "Ġnative": 4481,
      "Ġbec": 4482,
      "grade": 4483,
      "02": 4484,
      "ĠMS": 4485,
      "ĠMerge": 4486,
      "ĠLookup": 4487,
      "ĠCanonical": 4488,
      "Ġmean": 4489,
      "cedure": 4490,
      "Ġdetermine": 4491,
      "ĠWhitespace": 4492,
      "Ġgetter": 4493,
      "ocus": 4494,
      "ĠCRE": 4495,
      "ĠFail": 4496,
      "ĠBU": 4497,
      "INT": 4498,
      "ĠSupported": 4499,
      "ĠBounding": 4500,
      "ĠATTRIB": 4501,
      "global": 4502,
      "Ġpipeline": 4503,
      "Field": 4504,
      "fw": 4505,
      "he": 4506,
      "Ġcaller": 4507,
      "argets": 4508,
      "avers": 4509,
      "eeper": 4510,
      "ng": 4511,
      "OUND": 4512,
      "ĠJsp": 4513,
      "ĠAzure": 4514,
      "Ġprojection": 4515,
      "Ġusers": 4516,
      "emplates": 4517,
      "Ġadmin": 4518,
      "idden": 4519,
      "ĠProjection": 4520,
      "Ġrequests": 4521,
      "ĠPrivile": 4522,
      "Inv": 4523,
      "Ġincluding": 4524,
      "item": 4525,
      "Ġgo": 4526,
      "ĠSeconds": 4527,
      "ĠPure": 4528,
      "Ġnecessary": 4529,
      "ison": 4530,
      "Ġdirection": 4531,
      "IGH": 4532,
      "venience": 4533,
      "Ġpeer": 4534,
      "ĠPdf": 4535,
      "Ġdeclared": 4536,
      "Data": 4537,
      "Ġworkflow": 4538,
      "Ġentities": 4539,
      "ĠCSS": 4540,
      "allback": 4541,
      "ĠWeight": 4542,
      "Ġcompiler": 4543,
      "Ġservices": 4544,
      "ĠCR": 4545,
      "ĠCatalog": 4546,
      "ITION": 4547,
      "Spec": 4548,
      "ĠDepth": 4549,
      "Ġlogging": 4550,
      "ĠRectangle": 4551,
      "ĠgetY": 4552,
      "ĠLines": 4553,
      "ivery": 4554,
      "ĠAccept": 4555,
      "Ġzoom": 4556,
      "Ġprocessing": 4557,
      "ecursive": 4558,
      "Ġpeek": 4559,
      "ĠMaster": 4560,
      "Ġplan": 4561,
      "Ġ5": 4562,
      "ĠPatch": 4563,
      "econds": 4564,
      "ĠBranch": 4565,
      "Ġpkg": 4566,
      "PUT": 4567,
      "ĠRevision": 4568,
      "Ġord": 4569,
      "Ġhistory": 4570,
      "ĠModifier": 4571,
      "print": 4572,
      "Ġauthorization": 4573,
      "ĠHy": 4574,
      "ĠCONFIG": 4575,
      "ĠEXT": 4576,
      "ĠJournal": 4577,
      "uplicate": 4578,
      "Ġdeleted": 4579,
      "Ġcoordinate": 4580,
      "ĠPeer": 4581,
      "Ġmissing": 4582,
      "Ġkernel": 4583,
      "ARY": 4584,
      "URE": 4585,
      "ĠProvid": 4586,
      "ĠAudit": 4587,
      "12": 4588,
      "Ġsq": 4589,
      "acy": 4590,
      "ĠReason": 4591,
      "stream": 4592,
      "ookies": 4593,
      "Ġneeded": 4594,
      "ĠAnimation": 4595,
      "fic": 4596,
      "ĠSample": 4597,
      "ĠEsc": 4598,
      "ĠObserver": 4599,
      "ĠTransition": 4600,
      "Ġcorrect": 4601,
      "Ġindent": 4602,
      "alt": 4603,
      "ĠDIS": 4604,
      "utation": 4605,
      "Ġinitialized": 4606,
      "Ġms": 4607,
      "Ġthey": 4608,
      "ĠFORMAT": 4609,
      "10": 4610,
      "rees": 4611,
      "riate": 4612,
      "ĠTokenizer": 4613,
      "ĠMove": 4614,
      "Lists": 4615,
      "Loads": 4616,
      "Ġvol": 4617,
      "Ġstarted": 4618,
      "Ġsuch": 4619,
      "Ġlabels": 4620,
      "ropriate": 4621,
      "oring": 4622,
      "Ġmime": 4623,
      "ĠSets": 4624,
      "ĠScore": 4625,
      "Ġparticular": 4626,
      "Util": 4627,
      "oriz": 4628,
      "ĠCACHE": 4629,
      "ĠBorder": 4630,
      "quival": 4631,
      "now": 4632,
      "oded": 4633,
      "iration": 4634,
      "PO": 4635,
      "Ġadds": 4636,
      "Ġevery": 4637,
      "ĠActions": 4638,
      "ĠDetector": 4639,
      "ĠMESSAGE": 4640,
      "ilities": 4641,
      "ĠFeatures": 4642,
      "Ġest": 4643,
      "ĠCS": 4644,
      "Ġleast": 4645,
      "Ġbackground": 4646,
      "VICE": 4647,
      "ls": 4648,
      "ĠSuffix": 4649,
      "ĠVert": 4650,
      "Ġseed": 4651,
      "aven": 4652,
      "ABLED": 4653,
      "ĠEstimate": 4654,
      "ĠPadding": 4655,
      "ĠHas": 4656,
      "ĠVersions": 4657,
      "Ġbel": 4658,
      "ĠDO": 4659,
      "ĠSTATE": 4660,
      "tree": 4661,
      "ĠCompletion": 4662,
      "Ġarchive": 4663,
      "herit": 4664,
      "Ġredirect": 4665,
      "Ġcould": 4666,
      "ĠInterfaces": 4667,
      "Ġretval": 4668,
      "ĠFilters": 4669,
      "Determine": 4670,
      "16": 4671,
      "ĠDefinitions": 4672,
      "position": 4673,
      "less": 4674,
      "ĠSim": 4675,
      "Ġadmanager": 4676,
      "ĠConnector": 4677,
      "Ġscheduler": 4678,
      "ural": 4679,
      "ĠWarehouse": 4680,
      "cest": 4681,
      "Ġroll": 4682,
      "amework": 4683,
      "codes": 4684,
      "ĠTracker": 4685,
      "Sub": 4686,
      "etter": 4687,
      "triction": 4688,
      "ĠPayment": 4689,
      "ĠFax": 4690,
      "Ġshard": 4691,
      "ovy": 4692,
      "amera": 4693,
      "DC": 4694,
      "Ġhandlers": 4695,
      "gable": 4696,
      "ĠExtractor": 4697,
      "ĠHandlers": 4698,
      "Ġexchange": 4699,
      "ĠAssertion": 4700,
      "ĠCreated": 4701,
      "Initializes": 4702,
      "File": 4703,
      "Ġnet": 4704,
      "Ġpolygon": 4705,
      "Ġdrop": 4706,
      "Ġappropriate": 4707,
      "GL": 4708,
      "ĠNUM": 4709,
      "ĠNODE": 4710,
      "ĠEnv": 4711,
      "ĠAtomic": 4712,
      "ĠFaces": 4713,
      "ĠInstall": 4714,
      "ATED": 4715,
      "ĠNeed": 4716,
      "Ġyet": 4717,
      "Ġrecords": 4718,
      "Ġstage": 4719,
      "Ġpointer": 4720,
      "LECT": 4721,
      "ĠRelationship": 4722,
      "ĠAPPLICATION": 4723,
      "Ġabsolute": 4724,
      "ĠBL": 4725,
      "ĠZero": 4726,
      "ĠRESOURCE": 4727,
      "vance": 4728,
      "ĠEnfor": 4729,
      "LEMENT": 4730,
      "Ġpoly": 4731,
      "opes": 4732,
      "no": 4733,
      "Ġreturning": 4734,
      "ĠAssemb": 4735,
      "Ġss": 4736,
      "ĠAUT": 4737,
      "tl": 4738,
      "ĠDAY": 4739,
      "Ġprice": 4740,
      "Class": 4741,
      "ĠADD": 4742,
      "ĠLabels": 4743,
      "Ġallocate": 4744,
      "argin": 4745,
      "ĠExpress": 4746,
      "Context": 4747,
      "Ġpacket": 4748,
      "TYPE": 4749,
      "Ġappfw": 4750,
      "Ġrelated": 4751,
      "ĠSegments": 4752,
      "oned": 4753,
      "roovy": 4754,
      "ĠPending": 4755,
      "allery": 4756,
      "Ġwatch": 4757,
      "ĠProducer": 4758,
      "iagn": 4759,
      "ĠOK": 4760,
      "Ġexample": 4761,
      "ĠSig": 4762,
      "essaging": 4763,
      "Ġcompar": 4764,
      "ĠContents": 4765,
      "ĠElem": 4766,
      "ĠINIT": 4767,
      "Ġswap": 4768,
      "ĠFlowable": 4769,
      "Ġagainst": 4770,
      "ĠColl": 4771,
      "ESC": 4772,
      "Ġpreference": 4773,
      "Ġpur": 4774,
      "ĠTw": 4775,
      "Ġvm": 4776,
      "ĠDispatch": 4777,
      "Ġcd": 4778,
      "ĠClause": 4779,
      "Ġnormalized": 4780,
      "WS": 4781,
      "inate": 4782,
      "ĠTEXT": 4783,
      "Ġindexes": 4784,
      "ool": 4785,
      "acer": 4786,
      "ĠGen": 4787,
      "ĠTrue": 4788,
      "Ġshift": 4789,
      "ĠTicket": 4790,
      "Be": 4791,
      "Ġfix": 4792,
      "Ġgen": 4793,
      "Ġba": 4794,
      "ĠBot": 4795,
      "ĠProcessing": 4796,
      "ĠSerializable": 4797,
      "ĠPrivileged": 4798,
      "ĠPtr": 4799,
      "ĠWS": 4800,
      "Ġasset": 4801,
      "ĠScroll": 4802,
      "Ġtransformer": 4803,
      "ĠEquals": 4804,
      "ĠRem": 4805,
      "ĠPop": 4806,
      "Ġdestroy": 4807,
      "closing": 4808,
      "ĠOBJECT": 4809,
      "arshal": 4810,
      "ĠFIL": 4811,
      "Ġwords": 4812,
      "ĠREQUEST": 4813,
      "Ġcr": 4814,
      "arm": 4815,
      "ĠTables": 4816,
      "adcast": 4817,
      "ĠCONTENT": 4818,
      "Obtain": 4819,
      "SQL": 4820,
      "ĠSET": 4821,
      "Calculates": 4822,
      "iet": 4823,
      "Ġboth": 4824,
      "Ġrc": 4825,
      "ĠBug": 4826,
      "Ġloaded": 4827,
      "VALID": 4828,
      "Ġmost": 4829,
      "Ġderiv": 4830,
      "ĠSheet": 4831,
      "Ġsleep": 4832,
      "ĠPush": 4833,
      "ĠDry": 4834,
      "Ġdifferent": 4835,
      "ĠSame": 4836,
      "Ġsolution": 4837,
      "poch": 4838,
      "Ġreferences": 4839,
      "Ġlike": 4840,
      "ĠInjection": 4841,
      "ĠReply": 4842,
      "Ġsoap": 4843,
      "By": 4844,
      "Ġrew": 4845,
      "abilities": 4846,
      "Ġvalidator": 4847,
      "Ġworkspace": 4848,
      "Registers": 4849,
      "ĠTempor": 4850,
      "ircuit": 4851,
      "auth": 4852,
      "ĠSsl": 4853,
      "Us": 4854,
      "ĠStruct": 4855,
      "Ġdatas": 4856,
      "Ġattachment": 4857,
      "Service": 4858,
      "ĠMOD": 4859,
      "Ġloop": 4860,
      "Ġimpl": 4861,
      "Ġencrypt": 4862,
      "OF": 4863,
      "ĠLifecycle": 4864,
      "Ġspecification": 4865,
      "licies": 4866,
      "typ": 4867,
      "Ġextended": 4868,
      "TTOKEN": 4869,
      "ĠTRAN": 4870,
      "HOD": 4871,
      "ĠRoles": 4872,
      "Ġquot": 4873,
      "andidates": 4874,
      "binding": 4875,
      "Ġradius": 4876,
      "oto": 4877,
      "ĠShard": 4878,
      "ĠParts": 4879,
      "ĠTRACE": 4880,
      "ĠBackend": 4881,
      "Ġrestore": 4882,
      "riendly": 4883,
      "DER": 4884,
      "Path": 4885,
      "Ġtri": 4886,
      "Ġ\\\\": 4887,
      "ĠPoly": 4888,
      "ENS": 4889,
      "ĠGeneral": 4890,
      "Ġattrs": 4891,
      "ĠLocator": 4892,
      "ĠCipher": 4893,
      "ĠMat": 4894,
      "ĠExtended": 4895,
      "atio": 4896,
      "orld": 4897,
      "adow": 4898,
      "NECT": 4899,
      "ecision": 4900,
      "ĠPrepared": 4901,
      "Manager": 4902,
      "Ġpid": 4903,
      "Ġpres": 4904,
      "Ġcanonical": 4905,
      "ĠAccessible": 4906,
      "Ġserialized": 4907,
      "ffective": 4908,
      "Ġgeom": 4909,
      "ĠWrap": 4910,
      "azon": 4911,
      "iagnost": 4912,
      "files": 4913,
      "ĠCols": 4914,
      "enticated": 4915,
      "ĠPlugins": 4916,
      "Ġexpect": 4917,
      "uckets": 4918,
      "ensor": 4919,
      "Ġmer": 4920,
      "iver": 4921,
      "ĠDelegate": 4922,
      "Ġdoesn": 4923,
      "Ġbulk": 4924,
      "Ġoverl": 4925,
      "ĠFinish": 4926,
      "types": 4927,
      "Time": 4928,
      "IFI": 4929,
      "ĠRpc": 4930,
      "Ġep": 4931,
      "Ġless": 4932,
      "ĠEnforcer": 4933,
      "ĠSent": 4934,
      "ĠTransl": 4935,
      "Ġadjust": 4936,
      "ĠCenter": 4937,
      "ĠARR": 4938,
      "ĠOUT": 4939,
      "Ġarea": 4940,
      "ĠEXP": 4941,
      "entr": 4942,
      "ĠElse": 4943,
      "CL": 4944,
      "DATE": 4945,
      "label": 4946,
      "ĠInc": 4947,
      "ĠShow": 4948,
      "ĠPlatform": 4949,
      "IGN": 4950,
      "ĠScheduled": 4951,
      "ĠCOMP": 4952,
      "utures": 4953,
      "andsh": 4954,
      "ĠRelative": 4955,
      "irror": 4956,
      "icode": 4957,
      "Ġinterfaces": 4958,
      "ĠGraphics": 4959,
      "ĠCss": 4960,
      "ridge": 4961,
      "ĠUsers": 4962,
      "Ġpositive": 4963,
      "Ġplus": 4964,
      "Ġnegative": 4965,
      "Ġcard": 4966,
      "ĠConnections": 4967,
      "Cl": 4968,
      "NS": 4969,
      "RESS": 4970,
      "ĠSum": 4971,
      "ventory": 4972,
      "Ġmatched": 4973,
      "Ġbuffers": 4974,
      "ĠStates": 4975,
      "Ġkeep": 4976,
      "ĠPL": 4977,
      "requ": 4978,
      "ĠConstraints": 4979,
      "Ġcalls": 4980,
      "Ġav": 4981,
      "ĠCompany": 4982,
      "Ġvariant": 4983,
      "ĠEVENT": 4984,
      "ĠAler": 4985,
      "ĠNEX": 4986,
      "def": 4987,
      "aped": 4988,
      "Ġunregister": 4989,
      "ĠOFF": 4990,
      "ĠHelp": 4991,
      "ildcard": 4992,
      "Ġblocks": 4993,
      "ĠDigits": 4994,
      "BL": 4995,
      "ĠInject": 4996,
      "aches": 4997,
      "ĠINVALID": 4998,
      "Ġincom": 4999,
      "Ġdependencies": 5000,
      "ĠSuperclass": 5001,
      "base": 5002,
      "Ġseries": 5003,
      "ĠOperations": 5004,
      "Ġbounding": 5005,
      "ĠReplication": 5006,
      "An": 5007,
      "Ġcoord": 5008,
      "ecode": 5009,
      "ookmark": 5010,
      "ĠEntities": 5011,
      "ecursively": 5012,
      "Executes": 5013,
      "PC": 5014,
      "ĠUtility": 5015,
      "ĠCreator": 5016,
      "ĠSUCH": 5017,
      "ĠARRAY": 5018,
      "ĠRing": 5019,
      "ipment": 5020,
      "Ġprocessor": 5021,
      "Ġdimensions": 5022,
      "Col": 5023,
      "by": 5024,
      "add": 5025,
      "oss": 5026,
      "ĠWithout": 5027,
      "Ġmarker": 5028,
      "ĠCloseable": 5029,
      "bed": 5030,
      "ĠSince": 5031,
      "ĠBlob": 5032,
      "Register": 5033,
      "aim": 5034,
      "ĠAware": 5035,
      "unct": 5036,
      "ALL": 5037,
      "Test": 5038,
      "atis": 5039,
      "Ġsquare": 5040,
      "ĠINDEX": 5041,
      "ĠEvaluation": 5042,
      "ĠROOT": 5043,
      "Ġce": 5044,
      "Ġaa": 5045,
      "ĠFIN": 5046,
      "ading": 5047,
      "ĠContact": 5048,
      "Ġimg": 5049,
      "Ġrank": 5050,
      "ONG": 5051,
      "strument": 5052,
      "Ġreading": 5053,
      "ĠTransfer": 5054,
      "ued": 5055,
      "off": 5056,
      "icker": 5057,
      "ĠJobs": 5058,
      "caler": 5059,
      "uer": 5060,
      "ĠCodes": 5061,
      "aring": 5062,
      "Ġyour": 5063,
      "Ġexceptions": 5064,
      "ĠNEXTTOKEN": 5065,
      "VR": 5066,
      "ually": 5067,
      "ĠVideo": 5068,
      "ĠModifiers": 5069,
      "Ġclick": 5070,
      "Ġfax": 5071,
      "ĠACTION": 5072,
      "ĠVM": 5073,
      "eline": 5074,
      "Ġinterceptor": 5075,
      "connect": 5076,
      "Compute": 5077,
      "rase": 5078,
      "Ġcc": 5079,
      "Ġcreates": 5080,
      "ĠLake": 5081,
      "Ġenc": 5082,
      "ĠBegin": 5083,
      "ĠGenerated": 5084,
      "ĠEncryption": 5085,
      "Ġnested": 5086,
      "ĠExceptions": 5087,
      "ĠVars": 5088,
      "Ġpredic": 5089,
      "Ġignored": 5090,
      "IGHT": 5091,
      "ĠGROUP": 5092,
      "ĠThreshold": 5093,
      "ĠMETHOD": 5094,
      "UD": 5095,
      "rec": 5096,
      "chor": 5097,
      "ĠDependencies": 5098,
      "Ġtake": 5099,
      "Ġawait": 5100,
      "emant": 5101,
      "BUG": 5102,
      "ĠCandidate": 5103,
      "Ġgreater": 5104,
      "Ġpe": 5105,
      "Ġdump": 5106,
      "ĠHook": 5107,
      "ĠTrust": 5108,
      "Ġwrapped": 5109,
      "mise": 5110,
      "ĠSeries": 5111,
      "Ġdetail": 5112,
      "Ġexclude": 5113,
      "ĠAbsent": 5114,
      "iolation": 5115,
      "ĠTier": 5116,
      "ĠDiv": 5117,
      "Ġway": 5118,
      "uff": 5119,
      "ĠSUB": 5120,
      "ensitive": 5121,
      "Of": 5122,
      "go": 5123,
      "Ġoverrid": 5124,
      "ĠAlert": 5125,
      "Ġrg": 5126,
      "Ġnc": 5127,
      "Ġpercent": 5128,
      "Ġorganization": 5129,
      "ĠImplement": 5130,
      "Ġjavax": 5131,
      "ĠREST": 5132,
      "ĠDays": 5133,
      "ATCH": 5134,
      "ĠAudio": 5135,
      "ĠAccessor": 5136,
      "Ġconnected": 5137,
      "Source": 5138,
      "ĠReferences": 5139,
      "opies": 5140,
      "Ġinputs": 5141,
      "ĠUsername": 5142,
      "ĠENC": 5143,
      "ĠPATTERN": 5144,
      "ĠOriginal": 5145,
      "mission": 5146,
      "ove": 5147,
      "etric": 5148,
      "ĠCert": 5149,
      "isor": 5150,
      "erved": 5151,
      "gt": 5152,
      "ĠIo": 5153,
      "uts": 5154,
      "Ġonce": 5155,
      "riterion": 5156,
      "ĠATTRIBUTE": 5157,
      "Ġcountry": 5158,
      "ĠCard": 5159,
      "Ġgateway": 5160,
      "amm": 5161,
      "Ġdays": 5162,
      "ĠInstruction": 5163,
      "Ġscroll": 5164,
      "ĠDEBUG": 5165,
      "Ġstatistics": 5166,
      "Ġconnections": 5167,
      "ĠInfos": 5168,
      "BER": 5169,
      "Item": 5170,
      "Ġbasic": 5171,
      "usion": 5172,
      "ĠCoord": 5173,
      "arl": 5174,
      "Ġbuff": 5175,
      "ĠAuthor": 5176,
      "Ġrepresenting": 5177,
      "ĠBindings": 5178,
      "Ġtoler": 5179,
      "ĠActiv": 5180,
      "ĠSo": 5181,
      "ĠDist": 5182,
      "ARG": 5183,
      "ĠScanner": 5184,
      "iddle": 5185,
      "ĠHEADER": 5186,
      "ĠFinal": 5187,
      "Ġrunnable": 5188,
      "Ġbackup": 5189,
      "fsets": 5190,
      "Ġaudit": 5191,
      "ĠHome": 5192,
      "Ġoffer": 5193,
      "vide": 5194,
      "oration": 5195,
      "Ġbig": 5196,
      "stal": 5197,
      "affic": 5198,
      "Al": 5199,
      "Ver": 5200,
      "ĠCt": 5201,
      "unnel": 5202,
      "Ġtransformation": 5203,
      "posal": 5204,
      "ĠAND": 5205,
      "Make": 5206,
      "ture": 5207,
      "ĠSur": 5208,
      "Ġnorm": 5209,
      "Ġbar": 5210,
      "Ġsheet": 5211,
      "Ġcalling": 5212,
      "ĠIndexable": 5213,
      "ĠPres": 5214,
      "ench": 5215,
      "Ġthreshold": 5216,
      "places": 5217,
      "Convenience": 5218,
      "ĠMatching": 5219,
      "Ġrhs": 5220,
      "Ġpadding": 5221,
      "Ġbas": 5222,
      "inality": 5223,
      "Ġdesired": 5224,
      "ĠPrevious": 5225,
      "cestor": 5226,
      "lt": 5227,
      "ĠELEMENT": 5228,
      "ĠRelease": 5229,
      "Ġpred": 5230,
      "ITE": 5231,
      "ĠCOLUM": 5232,
      "Handler": 5233,
      "paces": 5234,
      "Ġtransition": 5235,
      "apsed": 5236,
      "Ġtolerance": 5237,
      "ĠSELECT": 5238,
      "Ġqualified": 5239,
      "index": 5240,
      "ĠRET": 5241,
      "ĠOcc": 5242,
      "adoop": 5243,
      "Ġprot": 5244,
      "ĠUtilities": 5245,
      "Ġdeleter": 5246,
      "Ġneeds": 5247,
      "Do": 5248,
      "ĠWs": 5249,
      "Ġpatterns": 5250,
      "ĠCreation": 5251,
      "Ġpairs": 5252,
      "DF": 5253,
      "ka": 5254,
      "ĠAS": 5255,
      "ĠBE": 5256,
      "ANT": 5257,
      "ĠLocked": 5258,
      "Ġcredential": 5259,
      "ĠWE": 5260,
      "ĠChecked": 5261,
      "Ġhostname": 5262,
      "Ġassignment": 5263,
      "Send": 5264,
      "fir": 5265,
      "Ġsetter": 5266,
      "orizon": 5267,
      "ĠParameterized": 5268,
      "Ġbecause": 5269,
      "Ġsur": 5270,
      "ĠFS": 5271,
      "ĠFree": 5272,
      "ĠUnm": 5273,
      "ĠBlocks": 5274,
      "Ġauthor": 5275,
      "Ġlocator": 5276,
      "hook": 5277,
      "ĠArr": 5278,
      "Ġinstruction": 5279,
      "ĠDATE": 5280,
      "Ġdf": 5281,
      "ooter": 5282,
      "JB": 5283,
      "Ġpw": 5284,
      "ĠLE": 5285,
      "ĠFINE": 5286,
      "ĠClasspath": 5287,
      "Ġasynchronous": 5288,
      "Pre": 5289,
      "ĠModels": 5290,
      "Ġhow": 5291,
      "ĠAngle": 5292,
      "aves": 5293,
      "Ġprojects": 5294,
      "ĠOrient": 5295,
      "Ġtranslate": 5296,
      "ĠStreams": 5297,
      "aker": 5298,
      "Ġdeclaration": 5299,
      "ĠJM": 5300,
      "aving": 5301,
      "ĠReflection": 5302,
      "Ġpartial": 5303,
      "ĠIndices": 5304,
      "Ġpaint": 5305,
      "Ġoid": 5306,
      "Ġextensions": 5307,
      "OCK": 5308,
      "ĠNanos": 5309,
      "ĠLic": 5310,
      "ĠShutdown": 5311,
      "ĠCompleted": 5312,
      "etc": 5313,
      "ĠCas": 5314,
      "alancer": 5315,
      "itemap": 5316,
      "atial": 5317,
      "Ġsaved": 5318,
      "Ġfn": 5319,
      "ĠWR": 5320,
      "ĠJav": 5321,
      "ĠStarted": 5322,
      "ĠRegistered": 5323,
      "Utility": 5324,
      "Over": 5325,
      "ĠExtra": 5326,
      "ĠRedis": 5327,
      "ĠDrawer": 5328,
      "Ġsmall": 5329,
      "ĠCost": 5330,
      "Ġps": 5331,
      "Ġ~": 5332,
      "ĠAcc": 5333,
      "teps": 5334,
      "Ġannotated": 5335,
      "verage": 5336,
      "Ġtenant": 5337,
      "Info": 5338,
      "Attempt": 5339,
      "Ġpad": 5340,
      "ĠMay": 5341,
      "Ġlhs": 5342,
      "Ġown": 5343,
      "relation": 5344,
      "Ġthreads": 5345,
      "ĠTRUE": 5346,
      "ĠRedirect": 5347,
      "Ġparsing": 5348,
      "View": 5349,
      "so": 5350,
      "Ġcos": 5351,
      "Ġgl": 5352,
      "ĠDESC": 5353,
      "ĠFle": 5354,
      "ĠOS": 5355,
      "Ġholder": 5356,
      "ĠThan": 5357,
      "Ġlic": 5358,
      "ĠLazy": 5359,
      "ĠGroovy": 5360,
      "ĠFunctions": 5361,
      "ĠDecoder": 5362,
      "Ġallows": 5363,
      "Ġevt": 5364,
      "ĠBehavior": 5365,
      "Query": 5366,
      "Ġsever": 5367,
      "olders": 5368,
      "ĠDeserial": 5369,
      "KN": 5370,
      "Ġsin": 5371,
      "Ġlaunch": 5372,
      "ĠLocalized": 5373,
      "Ġincluded": 5374,
      "Ġconsume": 5375,
      "Ġdeserialize": 5376,
      "Ad": 5377,
      "Ġsummary": 5378,
      "Ġmk": 5379,
      "plits": 5380,
      "ipient": 5381,
      "Ġwaiting": 5382,
      "GB": 5383,
      "Sc": 5384,
      "ĠFOR": 5385,
      "Ġlibrary": 5386,
      "otype": 5387,
      "Ġtopology": 5388,
      "ĠCompiler": 5389,
      "ĠVariant": 5390,
      "ĠIssue": 5391,
      "Ġsv": 5392,
      "ĠClean": 5393,
      "Ġparallel": 5394,
      "Filter": 5395,
      "Ġte": 5396,
      "Ġden": 5397,
      "Ġunknown": 5398,
      "Ġarrays": 5399,
      "ĠManifest": 5400,
      "ĠVolt": 5401,
      "Ġfac": 5402,
      "Ġpatch": 5403,
      "ĠVault": 5404,
      "ĠAnalysis": 5405,
      "ĠCLI": 5406,
      "ĠAmount": 5407,
      "Ġpopulate": 5408,
      "ii": 5409,
      "wrap": 5410,
      "ĠRot": 5411,
      "quire": 5412,
      "peat": 5413,
      "ensity": 5414,
      "UUID": 5415,
      "Ġgc": 5416,
      "ilar": 5417,
      "ĠSERVICE": 5418,
      "One": 5419,
      "VE": 5420,
      "Ġgeo": 5421,
      "ĠBson": 5422,
      "ĠHigh": 5423,
      "Ġtables": 5424,
      "Ġside": 5425,
      "ĠUnits": 5426,
      "Ġweek": 5427,
      "ĠDownload": 5428,
      "Appends": 5429,
      "ĠBO": 5430,
      "Ġdd": 5431,
      "Ġadding": 5432,
      "lide": 5433,
      "ongo": 5434,
      "ĠWARNING": 5435,
      "beat": 5436,
      "Ġliteral": 5437,
      "ĠCompute": 5438,
      "Ġprocessed": 5439,
      "ĠReady": 5440,
      "andling": 5441,
      "Execute": 5442,
      "mun": 5443,
      "Ġfamily": 5444,
      "ĠMock": 5445,
      "ĠDEL": 5446,
      "Ġcleanup": 5447,
      "Ġnd": 5448,
      "ĠBad": 5449,
      "Date": 5450,
      "Sends": 5451,
      "Ġembedded": 5452,
      "artbeat": 5453,
      "ysical": 5454,
      "Starts": 5455,
      "ness": 5456,
      "inated": 5457,
      "ĠMaps": 5458,
      "Ġassigned": 5459,
      "Ġmanifest": 5460,
      "ĠProviders": 5461,
      "ano": 5462,
      "Ġtrust": 5463,
      "uspend": 5464,
      "Ġsepar": 5465,
      "quivalent": 5466,
      "Element": 5467,
      "LY": 5468,
      "las": 5469,
      "etic": 5470,
      "ĠLibrary": 5471,
      "ĠJvm": 5472,
      "ipart": 5473,
      "ĠLeaf": 5474,
      "Ġcreation": 5475,
      "Ġatoms": 5476,
      "ĠMac": 5477,
      "ivid": 5478,
      "Ġhelp": 5479,
      "ĠMapped": 5480,
      "ĠAnnotated": 5481,
      "astore": 5482,
      "ĠInto": 5483,
      "ĠExpand": 5484,
      "Ġanimation": 5485,
      "ĠTRANS": 5486,
      "uces": 5487,
      "ĠConvert": 5488,
      "ĠMatches": 5489,
      "ĠBreak": 5490,
      "orizontal": 5491,
      "ĠIt": 5492,
      "Ġmid": 5493,
      "ĠVolume": 5494,
      "ĠNeeded": 5495,
      "ĠCOLUMN": 5496,
      "atype": 5497,
      "ĠSoy": 5498,
      "ewall": 5499,
      "Ġdep": 5500,
      "ĠIndexes": 5501,
      "ĠREG": 5502,
      "ULTS": 5503,
      "ĠMojo": 5504,
      "alyt": 5505,
      "Ġdiscount": 5506,
      "yy": 5507,
      "urable": 5508,
      "ĠPoll": 5509,
      "ĠMail": 5510,
      "ĠConst": 5511,
      "irewall": 5512,
      "ĠMappings": 5513,
      "ĠCOMM": 5514,
      "ĠCo": 5515,
      "ĠElastic": 5516,
      "Initialize": 5517,
      "ĠAssembly": 5518,
      "link": 5519,
      "arge": 5520,
      "ĠRx": 5521,
      "Ġ[]": 5522,
      "ENCE": 5523,
      "FFER": 5524,
      "Ġdrawable": 5525,
      "ĠIM": 5526,
      "ĠMON": 5527,
      "ĠBand": 5528,
      "ĠGoogle": 5529,
      "Ġadapt": 5530,
      "ĠRefresh": 5531,
      "Ġfld": 5532,
      "Ġborder": 5533,
      "ĠOld": 5534,
      "pressure": 5535,
      "Ġformula": 5536,
      "Ġcore": 5537,
      "Ġindexed": 5538,
      "Ġedges": 5539,
      "ĠGrant": 5540,
      "Ġpolling": 5541,
      "Ġhome": 5542,
      "ĠCONNECT": 5543,
      "ium": 5544,
      "ĠDot": 5545,
      "ĠLinks": 5546,
      "Ġactions": 5547,
      "Ġdn": 5548,
      "ĠExchange": 5549,
      "Ġ//": 5550,
      "Ġaccumul": 5551,
      "Ġaddresources": 5552,
      "Access": 5553,
      "ĠCast": 5554,
      "ĠBased": 5555,
      "ĠShare": 5556,
      "Ġinvalidate": 5557,
      "RA": 5558,
      "Ġrate": 5559,
      "Ġcodec": 5560,
      "ĠFeed": 5561,
      "Connection": 5562,
      "ĠExecutable": 5563,
      "Ġnote": 5564,
      "ĠSerialization": 5565,
      "ĠInclude": 5566,
      "Size": 5567,
      "ony": 5568,
      "ĠNaming": 5569,
      "ĠLAST": 5570,
      "pares": 5571,
      "Ġconversion": 5572,
      "Ġdev": 5573,
      "Node": 5574,
      "Ġbilling": 5575,
      "Ġnear": 5576,
      "ĠUsed": 5577,
      "Ġissue": 5578,
      "ĠReceived": 5579,
      "boolean": 5580,
      "Ġour": 5581,
      "adient": 5582,
      "store": 5583,
      "Ġquote": 5584,
      "Ġregular": 5585,
      "ĠShipment": 5586,
      "AMES": 5587,
      "STR": 5588,
      "Ġdecom": 5589,
      "ĠMouse": 5590,
      "ĠWatcher": 5591,
      "PK": 5592,
      "ĠSrc": 5593,
      "ĠLaunch": 5594,
      "ĠGUI": 5595,
      "Ġdetect": 5596,
      "Ġconsist": 5597,
      "ĠFinder": 5598,
      "Ġtemporary": 5599,
      "ĠChronology": 5600,
      "ĠSV": 5601,
      "Ġcud": 5602,
      "inger": 5603,
      "Ġcomput": 5604,
      "Ġunused": 5605,
      "Ġseek": 5606,
      "IBLE": 5607,
      "Open": 5608,
      "Ġconstraints": 5609,
      "Ġreduce": 5610,
      "ĠATTR": 5611,
      "requency": 5612,
      "SH": 5613,
      "ĠSn": 5614,
      "ĠMODE": 5615,
      "ĠExpressions": 5616,
      "ĠLib": 5617,
      "ilation": 5618,
      "ĠTransformation": 5619,
      "Ġalert": 5620,
      "PER": 5621,
      "ĠTEM": 5622,
      "ĠMultiple": 5623,
      "ĠFlush": 5624,
      "Ġlinks": 5625,
      "do": 5626,
      "Ġib": 5627,
      "ĠREC": 5628,
      "ĠLONG": 5629,
      "Ġdy": 5630,
      "Ġcollector": 5631,
      "Ġdeploy": 5632,
      "value": 5633,
      "Ġstyles": 5634,
      "olec": 5635,
      "Ġconverted": 5636,
      "ĠENABLED": 5637,
      "Ġunsetres": 5638,
      "ĠMaybe": 5639,
      "Match": 5640,
      "cel": 5641,
      "ĠConsum": 5642,
      "imap": 5643,
      "Ġrelationship": 5644,
      "Ġrotation": 5645,
      "tent": 5646,
      "Ġmac": 5647,
      "ĠExit": 5648,
      "Ġrele": 5649,
      "ĠProto": 5650,
      "Ġsuperclass": 5651,
      "ĠDefaults": 5652,
      "final": 5653,
      "ĠNone": 5654,
      "ĠNumeric": 5655,
      "Ġfinder": 5656,
      "Ġsignal": 5657,
      "ĠDigit": 5658,
      "ĠSolution": 5659,
      "ĠCa": 5660,
      "Ġfeed": 5661,
      "Ġreply": 5662,
      "ront": 5663,
      "erator": 5664,
      "ĠMgr": 5665,
      "avor": 5666,
      "ĠLeg": 5667,
      "Ġexplicit": 5668,
      "ĠBackpressure": 5669,
      "policylabel": 5670,
      "ĠDictionary": 5671,
      "ĠVIS": 5672,
      "18": 5673,
      "kt": 5674,
      "ones": 5675,
      "ĠSparse": 5676,
      "rift": 5677,
      "ĠVec": 5678,
      "emon": 5679,
      "Ġmodify": 5680,
      "args": 5681,
      "Serial": 5682,
      "Ġways": 5683,
      "ĠConcept": 5684,
      "ĠUsing": 5685,
      "Ġblob": 5686,
      "ĠDom": 5687,
      "ĠParallel": 5688,
      "ĠNotation": 5689,
      "ENAME": 5690,
      "ĠReadable": 5691,
      "OG": 5692,
      "Ġsqrt": 5693,
      "filter": 5694,
      "Ġcontact": 5695,
      "Ġcanvas": 5696,
      "Ġdecimal": 5697,
      "ĠMeasurement": 5698,
      "andshake": 5699,
      "ĠLicense": 5700,
      "Ġtd": 5701,
      "Ġsure": 5702,
      "ĠInline": 5703,
      "Ġrevision": 5704,
      "Ġdigit": 5705,
      "ĠBroker": 5706,
      "tions": 5707,
      "ĠMASK": 5708,
      "ĠVAR": 5709,
      "ĠEncode": 5710,
      "ĠSecure": 5711,
      "sd": 5712,
      "icro": 5713,
      "Ġtransfer": 5714,
      "ĠSERVER": 5715,
      "ĠEvaluator": 5716,
      "MPP": 5717,
      "ĠTail": 5718,
      "stalled": 5719,
      "lab": 5720,
      "Ġroles": 5721,
      "ĠConfigs": 5722,
      "Ġ*=": 5723,
      "Ġdisabled": 5724,
      "Ġcomments": 5725,
      "ĠLoggable": 5726,
      "pire": 5727,
      "overage": 5728,
      "ulation": 5729,
      "ĠMD": 5730,
      "ĠRev": 5731,
      "ĠHistogram": 5732,
      "Ġanalyz": 5733,
      "Ġunion": 5734,
      "Ġplatform": 5735,
      "56": 5736,
      "ully": 5737,
      "izing": 5738,
      "ĠStyles": 5739,
      "Ġchecks": 5740,
      "ĠCompound": 5741,
      "ĠSoft": 5742,
      "omer": 5743,
      "tle": 5744,
      "ĠPaint": 5745,
      "Ġenvelope": 5746,
      "Ġunits": 5747,
      "ĠGetter": 5748,
      "RIPTION": 5749,
      "Ġconditions": 5750,
      "IES": 5751,
      "Ġdx": 5752,
      "olver": 5753,
      "ĠLex": 5754,
      "Ġreceiver": 5755,
      "firm": 5756,
      "Ġmappings": 5757,
      "Ġplain": 5758,
      "Ġcompletion": 5759,
      "ĠAUTH": 5760,
      "PORT": 5761,
      "Wh": 5762,
      "len": 5763,
      "vie": 5764,
      "alf": 5765,
      "Ġvisibility": 5766,
      "ĠPhone": 5767,
      "ĠConcurrent": 5768,
      "Ġstrip": 5769,
      "ĠSkip": 5770,
      "RESULTS": 5771,
      "Ġmkdir": 5772,
      "Array": 5773,
      "holder": 5774,
      "ese": 5775,
      "Ġnone": 5776,
      "uli": 5777,
      "Ġeval": 5778,
      "Ġlib": 5779,
      "ĠBYTE": 5780,
      "head": 5781,
      "Used": 5782,
      "alance": 5783,
      "Ġmaj": 5784,
      "ĠDD": 5785,
      "ĠFIND": 5786,
      "Ġwant": 5787,
      "Ġwritten": 5788,
      "Ġnumeric": 5789,
      "Ġmaybe": 5790,
      "ĠFacet": 5791,
      "ĠSave": 5792,
      "Ġring": 5793,
      "ĠDrop": 5794,
      "Ġdefine": 5795,
      "ISH": 5796,
      "ĠCompat": 5797,
      "ĠLoop": 5798,
      "ĠFACT": 5799,
      "ĠHint": 5800,
      "ĠUNKN": 5801,
      "Fields": 5802,
      "Obtains": 5803,
      "ĠFocus": 5804,
      "ĠAnalyt": 5805,
      "ĠAPP": 5806,
      "Ġcross": 5807,
      "ĠOwn": 5808,
      "posed": 5809,
      "ĠUpdated": 5810,
      "opped": 5811,
      "LS": 5812,
      "mx": 5813,
      "omm": 5814,
      "Ġuses": 5815,
      "ĠQuiet": 5816,
      "Ġdecor": 5817,
      "ĠCharsets": 5818,
      "ĠMP": 5819,
      "Ġspecify": 5820,
      "Change": 5821,
      "Ġnumbers": 5822,
      "ĠWarning": 5823,
      "Ġreplic": 5824,
      "ĠMAXRESULTS": 5825,
      "Validates": 5826,
      "Message": 5827,
      "ĠStamp": 5828,
      "Extracts": 5829,
      "Im": 5830,
      "ĠAv": 5831,
      "Ġviews": 5832,
      "ways": 5833,
      "ĠSip": 5834,
      "Ġsd": 5835,
      "ĠLambda": 5836,
      "ĠDto": 5837,
      "ixin": 5838,
      "ĠRecords": 5839,
      "iagnostic": 5840,
      "Ġec": 5841,
      "etime": 5842,
      "Ġreceive": 5843,
      "Ġhook": 5844,
      "ĠAlive": 5845,
      "Ġready": 5846,
      "ĠImages": 5847,
      "ught": 5848,
      "ĠUNKNOWN": 5849,
      "ĠCODE": 5850,
      "ĠRestriction": 5851,
      "ĠInstantiation": 5852,
      "Ġlicense": 5853,
      "ef": 5854,
      "ned": 5855,
      "ĠSink": 5856,
      "rog": 5857,
      "Ġhour": 5858,
      "Ġstates": 5859,
      "ĠChem": 5860,
      "ARK": 5861,
      "Ġaltern": 5862,
      "uent": 5863,
      "ĠSCH": 5864,
      "Ġnf": 5865,
      "ĠPUT": 5866,
      "Ġmiddle": 5867,
      "ĠUnexpected": 5868,
      "Ġbuffered": 5869,
      "Ġfully": 5870,
      "ĠAssociation": 5871,
      "fc": 5872,
      "tros": 5873,
      "Ġmv": 5874,
      "Ġocp": 5875,
      "Ġexact": 5876,
      "ĠXMPP": 5877,
      "ARD": 5878,
      "eter": 5879,
      "icator": 5880,
      "ĠWH": 5881,
      "ĠUntil": 5882,
      "Ġchecksum": 5883,
      "ĠDelta": 5884,
      "pring": 5885,
      "ĠBinder": 5886,
      "Ġmilliseconds": 5887,
      "atisfi": 5888,
      "Handles": 5889,
      "icle": 5890,
      "ĠEmbedded": 5891,
      "ĠViews": 5892,
      "ĠAddresses": 5893,
      "bose": 5894,
      "fully": 5895,
      "anit": 5896,
      "ĠASC": 5897,
      "Ġintern": 5898,
      "ĠMany": 5899,
      "Ġbrowser": 5900,
      "ĠEnable": 5901,
      "rame": 5902,
      "Ġlon": 5903,
      "Ġspecial": 5904,
      "ĠCounts": 5905,
      "Ġmodels": 5906,
      "State": 5907,
      "ĠRetention": 5908,
      "ĠSide": 5909,
      "ĠChanges": 5910,
      "urrence": 5911,
      "Ġtracker": 5912,
      "http": 5913,
      "Ġsys": 5914,
      "tead": 5915,
      "ĠProgram": 5916,
      "Ġstruct": 5917,
      "ĠDistribution": 5918,
      "Index": 5919,
      "Ġservers": 5920,
      "ĠBuffers": 5921,
      "Ġcookies": 5922,
      "aries": 5923,
      "ĠBootstrap": 5924,
      "Ġtok": 5925,
      "Ġhistogram": 5926,
      "Ġheap": 5927,
      "Ġexpressions": 5928,
      "igration": 5929,
      "ĠMaven": 5930,
      "Ġsubstit": 5931,
      "ĠFormula": 5932,
      "ECK": 5933,
      "Ġ10": 5934,
      "ĠRemaining": 5935,
      "ĠDim": 5936,
      "Ġlists": 5937,
      "Ġexpiration": 5938,
      "ĠDelivery": 5939,
      "ODES": 5940,
      "ECOND": 5941,
      "Ġsince": 5942,
      "ĠTenant": 5943,
      "Ġsupplier": 5944,
      "overed": 5945,
      "Ġproducer": 5946,
      "Copies": 5947,
      "rs": 5948,
      "Ġfast": 5949,
      "ĠMirror": 5950,
      "Ġimmutable": 5951,
      "ĠDescriptors": 5952,
      "ĠPercent": 5953,
      "ĠPersistent": 5954,
      "ĠMILLISECONDS": 5955,
      "ĠDIRECT": 5956,
      "ĠCoordinates": 5957,
      "ĠContract": 5958,
      "loader": 5959,
      "Ġlatitude": 5960,
      "Ġqualifier": 5961,
      "ĠDTM": 5962,
      "ances": 5963,
      "Ġlambda": 5964,
      "ERY": 5965,
      "ailing": 5966,
      "ĠLinear": 5967,
      "Ġclosing": 5968,
      "Ġmeasure": 5969,
      "Ġscanner": 5970,
      "ĠGitlab": 5971,
      "ividual": 5972,
      "WT": 5973,
      "ĠBulk": 5974,
      "ĠGVR": 5975,
      "Ġrecon": 5976,
      "ĠInsn": 5977,
      "nowled": 5978,
      "Ġincoming": 5979,
      "SA": 5980,
      "ĠRoll": 5981,
      "ĠCompare": 5982,
      "ĠAlignment": 5983,
      "aversal": 5984,
      "count": 5985,
      "Ġfallback": 5986,
      "ĠPerm": 5987,
      "Ġbin": 5988,
      "ĠLite": 5989,
      "Ġlab": 5990,
      "Ġwhose": 5991,
      "Ġrequires": 5992,
      "Ġworking": 5993,
      "Transform": 5994,
      "inx": 5995,
      "Ġfact": 5996,
      "ĠEL": 5997,
      "process": 5998,
      "ORK": 5999,
      "ĠFILTER": 6000,
      "TP": 6001,
      "Ġcategories": 6002,
      "Ġinf": 6003,
      "ĠIndexed": 6004,
      "STEM": 6005,
      "ĠcompanyId": 6006,
      "Ġsubscribe": 6007,
      "ĠReceiver": 6008,
      "Ġbaos": 6009,
      "Ġmajor": 6010,
      "ĠDone": 6011,
      "Ġtog": 6012,
      "Ġtrunc": 6013,
      "ograph": 6014,
      "ĠAdded": 6015,
      "All": 6016,
      "aits": 6017,
      "cs": 6018,
      "inator": 6019,
      "ĠPAG": 6020,
      "ilio": 6021,
      "ĠRunner": 6022,
      "ĠCheckpoint": 6023,
      "Ġtz": 6024,
      "ĠFact": 6025,
      "sel": 6026,
      "Ġdeg": 6027,
      "INATION": 6028,
      "active": 6029,
      "ĠclassPK": 6030,
      "Ġblocking": 6031,
      "Ġbindings": 6032,
      "Count": 6033,
      "ĠFR": 6034,
      "agraph": 6035,
      "ĠDeploy": 6036,
      "ĠPolicies": 6037,
      "Ġfollowing": 6038,
      "Builder": 6039,
      "Fetch": 6040,
      "iment": 6041,
      "Ġtm": 6042,
      "Ġnets": 6043,
      "ropp": 6044,
      "ĠMer": 6045,
      "ĠOPTION": 6046,
      "ĠIntegration": 6047,
      "ĠReporter": 6048,
      "ĠAnimator": 6049,
      "ĠLon": 6050,
      "elab": 6051,
      "oding": 6052,
      "Ġjules": 6053,
      "Ġjuli": 6054,
      "Ġreadable": 6055,
      "Ġpref": 6056,
      "Ġsessions": 6057,
      "lickr": 6058,
      "Ġfinished": 6059,
      "Clos": 6060,
      "filtered": 6061,
      "Ġjulielab": 6062,
      "Ġpow": 6063,
      "Ġqueries": 6064,
      "Ġrepresents": 6065,
      "ĠWords": 6066,
      "Copy": 6067,
      "Group": 6068,
      "ĠSources": 6069,
      "ĠProcedure": 6070,
      "Ġassum": 6071,
      "ĠserviceName": 6072,
      "ĠScaling": 6073,
      "olecule": 6074,
      "ĠPredic": 6075,
      "Ġinstantiate": 6076,
      "Ġidentified": 6077,
      "returns": 6078,
      "ĠIncom": 6079,
      "ocker": 6080,
      "ĠDefined": 6081,
      "Ġlex": 6082,
      "ĠREM": 6083,
      "Ġdefinitions": 6084,
      "Ġnetscaler": 6085,
      "Buffer": 6086,
      "Ġresize": 6087,
      "ĠProposal": 6088,
      "Ġpackages": 6089,
      "Ġtheme": 6090,
      "Ġbelong": 6091,
      "TES": 6092,
      "ĠREF": 6093,
      "Ġobserver": 6094,
      "ibly": 6095,
      "ĠAuthority": 6096,
      "Ġcommands": 6097,
      ":'": 6098,
      "Imp": 6099,
      "Record": 6100,
      "ĠLINE": 6101,
      "ĠBalancer": 6102,
      "ĠReset": 6103,
      "ĠChart": 6104,
      "ĠUnsigned": 6105,
      "Ġ':'": 6106,
      "Ġmodules": 6107,
      "ĠQualifier": 6108,
      "OST": 6109,
      "lears": 6110,
      "Ġmock": 6111,
      "profile": 6112,
      "ĠExecute": 6113,
      "ĠThreads": 6114,
      "ĠPatterns": 6115,
      "ENSION": 6116,
      "ammar": 6117,
      "ĠMONTH": 6118,
      "max": 6119,
      "Ġcmp": 6120,
      "Ġcss": 6121,
      "ĠHierarchy": 6122,
      "Ġalso": 6123,
      "Ġinterp": 6124,
      "====": 6125,
      "going": 6126,
      "ĠSetup": 6127,
      "Ġatt": 6128,
      "Ġclause": 6129,
      "ĠBUFFER": 6130,
      "UBLE": 6131,
      "ically": 6132,
      "ascript": 6133,
      "Ġlogs": 6134,
      "ĠRecogn": 6135,
      "ĠWhere": 6136,
      "Ġinstead": 6137,
      "Ġoptim": 6138,
      "Ġcfg": 6139,
      "ĠDispatcher": 6140,
      "ĠTerms": 6141,
      "ĠNd": 6142,
      "ĠLight": 6143,
      "quences": 6144,
      "ĠAsc": 6145,
      "ĠTheme": 6146,
      "URATION": 6147,
      "ĠReplic": 6148,
      "ĠRequire": 6149,
      "Ġupdateresources": 6150,
      "DBC": 6151,
      "ĠCOLOR": 6152,
      "Ġrollback": 6153,
      "Look": 6154,
      "light": 6155,
      "uous": 6156,
      "Ġ9": 6157,
      "ern": 6158,
      "Ġteam": 6159,
      "ĠAD": 6160,
      "ĠInventory": 6161,
      "Apply": 6162,
      "alk": 6163,
      "Ġslice": 6164,
      "ĠOther": 6165,
      "Ġasc": 6166,
      "Ġautomation": 6167,
      "ingerprint": 6168,
      "ĠBrowser": 6169,
      "rior": 6170,
      "ather": 6171,
      "ĠChat": 6172,
      "iner": 6173,
      "Ġfunc": 6174,
      "elist": 6175,
      "rows": 6176,
      "Ġproper": 6177,
      "Ġprecision": 6178,
      "ĠInvok": 6179,
      "Ġcalc": 6180,
      "Ġdocuments": 6181,
      "REAM": 6182,
      "ĠQuotes": 6183,
      "ĠTwilio": 6184,
      "ĠQuietly": 6185,
      "ids": 6186,
      "ĠUnicode": 6187,
      "Ġchecking": 6188,
      "ĠFLAG": 6189,
      "VEL": 6190,
      "Ġmachine": 6191,
      "Ġinline": 6192,
      "tributed": 6193,
      "Ġlongitude": 6194,
      "Ġprefs": 6195,
      "Ġ12": 6196,
      "ĠYE": 6197,
      "Ġconnector": 6198,
      "Entry": 6199,
      "ĠResolution": 6200,
      "ĠSketch": 6201,
      "ORMAL": 6202,
      "ĠAnalytics": 6203,
      "Auth": 6204,
      "ears": 6205,
      "ĠFF": 6206,
      "otope": 6207,
      "ĠStmt": 6208,
      "Inserts": 6209,
      "Ġversions": 6210,
      "Ġchannels": 6211,
      "Select": 6212,
      "Applies": 6213,
      "heet": 6214,
      "Ġspe": 6215,
      "ĠAV": 6216,
      "Ġoperand": 6217,
      "Ġhref": 6218,
      "Ġadvance": 6219,
      "Ġscheduled": 6220,
      "ĠACC": 6221,
      "Append": 6222,
      "Invok": 6223,
      "Ġandroid": 6224,
      "activ": 6225,
      "ĠTry": 6226,
      "ĠAtlas": 6227,
      "ĠINTER": 6228,
      "Ġdecoded": 6229,
      "Instance": 6230,
      "Ġui": 6231,
      "ĠSpecific": 6232,
      "ĠAmazon": 6233,
      "ĠFINDER": 6234,
      "ents": 6235,
      "Ġinherit": 6236,
      "ĠLdap": 6237,
      "Ġvec": 6238,
      "Ġass": 6239,
      "Constructs": 6240,
      "Ġexcluded": 6241,
      "ĠDOUBLE": 6242,
      "ĠSQ": 6243,
      "ised": 6244,
      "Ġbug": 6245,
      "Ġvideo": 6246,
      "Ġunwrap": 6247,
      "Ġclock": 6248,
      "ALSE": 6249,
      "TERNAL": 6250,
      "Code": 6251,
      "zone": 6252,
      "Ġthose": 6253,
      "ĠViolation": 6254,
      "Ġprogram": 6255,
      "Ġmaps": 6256,
      "Ġleaf": 6257,
      "ĠChecksum": 6258,
      "rete": 6259,
      "ĠCycle": 6260,
      "arr": 6261,
      "ĠEv": 6262,
      "ĠMessaging": 6263,
      "Ġprovide": 6264,
      "ĠJdbc": 6265,
      "oped": 6266,
      "ĠAddr": 6267,
      "Ġvals": 6268,
      "ĠMaximum": 6269,
      "Ġpreviously": 6270,
      "ĠIndicator": 6271,
      "Ġjobs": 6272,
      "ĠOFFSET": 6273,
      "VM": 6274,
      "YP": 6275,
      "ĠPub": 6276,
      "ĠAge": 6277,
      "ational": 6278,
      "Ġwere": 6279,
      "Ġintended": 6280,
      "aking": 6281,
      "ermark": 6282,
      "Ġmodifiers": 6283,
      "ĠLoading": 6284,
      "rypto": 6285,
      "ĠSubscriber": 6286,
      "ILED": 6287,
      "Ġacl": 6288,
      "ĠGEN": 6289,
      "ĠJOB": 6290,
      "ĠAlready": 6291,
      "Ġtranslation": 6292,
      "Ġiteration": 6293,
      "Ġcorrelation": 6294,
      "ipped": 6295,
      "ĠCLIENT": 6296,
      "Or": 6297,
      "ĠRound": 6298,
      "ĠClazz": 6299,
      "ĠTopology": 6300,
      "ĠSmart": 6301,
      "Ġrad": 6302,
      "Ġranges": 6303,
      "orable": 6304,
      "Ġgetfiltered": 6305,
      "ĠMM": 6306,
      "Ġcols": 6307,
      "Ġshare": 6308,
      "ĠShell": 6309,
      "ĠCharacters": 6310,
      "Ġincludes": 6311,
      "Ġmanagement": 6312,
      "Ġbroker": 6313,
      "oint": 6314,
      "ĠLIMIT": 6315,
      "Ġhierarchy": 6316,
      "Ġcomma": 6317,
      "ĠRemoved": 6318,
      "ĠPortal": 6319,
      "ĠRecovery": 6320,
      "Ġrenderer": 6321,
      "Descri": 6322,
      "ĠFriendly": 6323,
      "uples": 6324,
      "Stop": 6325,
      "Ġconversation": 6326,
      "Allow": 6327,
      "CS": 6328,
      "cr": 6329,
      "width": 6330,
      "Ġterms": 6331,
      "Ġrecursive": 6332,
      "ĠgetID": 6333,
      "Ġclassname": 6334,
      "Ġseen": 6335,
      "ĠInputStream": 6336,
      "Ġkeyspace": 6337,
      "Ġdepending": 6338,
      "ĠCurve": 6339,
      "Ġcx": 6340,
      "Ġcloud": 6341,
      "ĠFALSE": 6342,
      "ĠRespon": 6343,
      "Ġexc": 6344,
      "Ġcallable": 6345,
      "Replaces": 6346,
      "ESSION": 6347,
      "API": 6348,
      "ĠWindows": 6349,
      "\"'": 6350,
      "come": 6351,
      "Ġrt": 6352,
      "ĠClock": 6353,
      "ashboard": 6354,
      "Ġtokenizer": 6355,
      "Ġsnmp": 6356,
      "Ġdatasource": 6357,
      "Handle": 6358,
      "Is": 6359,
      "Out": 6360,
      "Ġsib": 6361,
      "ĠTargets": 6362,
      "tee": 6363,
      "Ġcomposite": 6364,
      "Ġlinked": 6365,
      "ĠAutom": 6366,
      "Ġdirectly": 6367,
      "Ġsupports": 6368,
      "PS": 6369,
      "TOD": 6370,
      "iator": 6371,
      "ĠED": 6372,
      "Ġmail": 6373,
      "ĠBASE": 6374,
      "ĠIntern": 6375,
      "Ġreload": 6376,
      "ĠChoice": 6377,
      "Ġstreams": 6378,
      "riggers": 6379,
      "munic": 6380,
      "got": 6381,
      "we": 6382,
      "Ġsy": 6383,
      "Ġsun": 6384,
      "ĠTOKEN": 6385,
      "ĠTemplates": 6386,
      "Ġbootstrap": 6387,
      "ueues": 6388,
      "Ġkeyword": 6389,
      "ĠAnalyz": 6390,
      "Ġchecked": 6391,
      "ĠModification": 6392,
      "Ġdirectories": 6393,
      "Ġcertain": 6394,
      "Ġintersect": 6395,
      "ĠYEAR": 6396,
      "23": 6397,
      "IO": 6398,
      "atermark": 6399,
      "ĠSitemap": 6400,
      "Ġsr": 6401,
      "rot": 6402,
      "ipant": 6403,
      "ĠIDENT": 6404,
      "Ġinterrupt": 6405,
      "Ġoccurrence": 6406,
      "mits": 6407,
      "ĠSECONDS": 6408,
      "ĠACT": 6409,
      "ĠAff": 6410,
      "ĠFore": 6411,
      "ĠFault": 6412,
      "ooled": 6413,
      "Ġouter": 6414,
      "ĠZoom": 6415,
      "Ġokhttp": 6416,
      "Print": 6417,
      "UBL": 6418,
      "atus": 6419,
      "Ġsink": 6420,
      "Ġra": 6421,
      "ĠEp": 6422,
      "Ġimages": 6423,
      "ĠSignal": 6424,
      "Ġutils": 6425,
      "Ġescaped": 6426,
      "Ġsubscriber": 6427,
      "Ġpersistent": 6428,
      "ARGET": 6429,
      "Event": 6430,
      "NOT": 6431,
      "pack": 6432,
      "ĠPull": 6433,
      "Ġmed": 6434,
      "ĠContin": 6435,
      "Ġregistration": 6436,
      "Ġrecent": 6437,
      "Listener": 6438,
      "ĠSEVER": 6439,
      "Calculate": 6440,
      "Ġordinal": 6441,
      "Ġraf": 6442,
      "ĠEOF": 6443,
      "ĠNavigation": 6444,
      "Ġdom": 6445,
      "Ġduplicate": 6446,
      "ĠKN": 6447,
      "ĠKeeper": 6448,
      "ĠRequested": 6449,
      "ertificates": 6450,
      "Ġfraction": 6451,
      "AILED": 6452,
      "Ġes": 6453,
      "Ġmp": 6454,
      "ĠDEC": 6455,
      "UMENT": 6456,
      "Ġchron": 6457,
      "Ġsubclass": 6458,
      "Ġauthentic": 6459,
      "Ġbackend": 6460,
      "ĠDBID": 6461,
      "cular": 6462,
      "ĠPopup": 6463,
      "ĠMention": 6464,
      "Ġvars": 6465,
      "assand": 6466,
      "ĠPromise": 6467,
      "ĠLongitude": 6468,
      "ASH": 6469,
      "Ġrepresented": 6470,
      "ĠVISIBLE": 6471,
      "watch": 6472,
      "ĠgetM": 6473,
      "edis": 6474,
      "ĠJMS": 6475,
      "ĠSetter": 6476,
      "loor": 6477,
      "ĠShift": 6478,
      "Ġadwords": 6479,
      "Ġapache": 6480,
      "ĠActual": 6481,
      "ĠPerform": 6482,
      "emantic": 6483,
      "ĠSlice": 6484,
      "Ġface": 6485,
      "Ġdr": 6486,
      "Ġextr": 6487,
      "ĠPager": 6488,
      "assandra": 6489,
      "BS": 6490,
      "Ġbs": 6491,
      "ĠOverl": 6492,
      "Ġwriting": 6493,
      "Ġsubs": 6494,
      "posable": 6495,
      "Inter": 6496,
      "ĠArt": 6497,
      "ĠHosts": 6498,
      "Ġaggregate": 6499,
      "ĠNEW": 6500,
      "alleng": 6501,
      "ĠDecor": 6502,
      "ĠVisit": 6503,
      "Ġreferenced": 6504,
      "201809": 6505,
      "ĠInjector": 6506,
      "Ġsquareup": 6507,
      "Ġgot": 6508,
      "ĠAST": 6509,
      "Ġhide": 6510,
      "Ġorient": 6511,
      "ĠAlloc": 6512,
      "ĠPortlet": 6513,
      "inct": 6514,
      "Ġpayment": 6515,
      "ĠTIM": 6516,
      "ĠEJB": 6517,
      "ager": 6518,
      "Ġstd": 6519,
      "ĠEnclosing": 6520,
      "Ġcounts": 6521,
      "URR": 6522,
      "ĠEdges": 6523,
      "ĠConversation": 6524,
      "ĠCREATE": 6525,
      "Bean": 6526,
      "ĠBottom": 6527,
      "Ġmerged": 6528,
      "ws": 6529,
      "write": 6530,
      "ĠPI": 6531,
      "Ġproto": 6532,
      "Ġcheckpoint": 6533,
      "udo": 6534,
      "Ġresolution": 6535,
      "ĠSlash": 6536,
      "ĠSpe": 6537,
      "Ġclip": 6538,
      "ĠCamera": 6539,
      "ĠRUN": 6540,
      "Ġweights": 6541,
      "ouch": 6542,
      "Ġrectangle": 6543,
      "Ġvolume": 6544,
      "DT": 6545,
      "PA": 6546,
      "ĠWhite": 6547,
      "Ġphoto": 6548,
      "Ġaudio": 6549,
      "opping": 6550,
      "Ġvertices": 6551,
      "nowledge": 6552,
      "Sort": 6553,
      "ĠPages": 6554,
      "Ġdrag": 6555,
      "Ġrepl": 6556,
      "ĠGallery": 6557,
      "Ġwhat": 6558,
      "afka": 6559,
      "Ġlocations": 6560,
      "Ġserialization": 6561,
      "Ġphase": 6562,
      "br": 6563,
      "cat": 6564,
      "ooser": 6565,
      "aching": 6566,
      "Ġfaces": 6567,
      "Ġgson": 6568,
      "anode": 6569,
      "Ġreb": 6570,
      "ĠVpc": 6571,
      "ĠKernel": 6572,
      "Ġjournal": 6573,
      "ĠRouter": 6574,
      "Ġmkdirs": 6575,
      "jax": 6576,
      "zip": 6577,
      "Ġfil": 6578,
      "Ġmm": 6579,
      "Ġcompressed": 6580,
      "IE": 6581,
      "ĠCriterion": 6582,
      "Ġpages": 6583,
      "Ġbad": 6584,
      "Ġbuckets": 6585,
      "field": 6586,
      "Ġjdbc": 6587,
      "ĠQuick": 6588,
      "reement": 6589,
      "Ġalign": 6590,
      "ĠConfigurations": 6591,
      "Ġloading": 6592,
      "Ġphone": 6593,
      "ĠApply": 6594,
      "umbn": 6595,
      "page": 6596,
      "ĠFOUND": 6597,
      "Ġchart": 6598,
      "ĠBeans": 6599,
      "ĠExisting": 6600,
      "ĠSVG": 6601,
      "esh": 6602,
      "ĠOrd": 6603,
      "Store": 6604,
      "UND": 6605,
      "Ġgrant": 6606,
      "ĠTemporal": 6607,
      "TED": 6608,
      "ners": 6609,
      "tc": 6610,
      "ĠSEC": 6611,
      "Ġnavigation": 6612,
      "ĠCM": 6613,
      "ĠFRO": 6614,
      "amel": 6615,
      "ello": 6616,
      "Ġhold": 6617,
      "ounce": 6618,
      "ĠPARAMET": 6619,
      "ĠUPDATE": 6620,
      "Evalu": 6621,
      "PAT": 6622,
      "ĠSpi": 6623,
      "ĠRatio": 6624,
      "ols": 6625,
      "ĠAlpha": 6626,
      "Ġdefaults": 6627,
      "Ġ00": 6628,
      "ĠENCOD": 6629,
      "Closes": 6630,
      "ike": 6631,
      "iness": 6632,
      "ĠThing": 6633,
      "ITS": 6634,
      "ceeded": 6635,
      "ivot": 6636,
      "uded": 6637,
      "ĠRepresent": 6638,
      "ĠParsed": 6639,
      "dr": 6640,
      "ĠLow": 6641,
      "ĠFirewall": 6642,
      "Ġxpath": 6643,
      "anagers": 6644,
      "ĠScene": 6645,
      "ĠCounters": 6646,
      "ĠPreview": 6647,
      "ĠTIMEOUT": 6648,
      "Ġactivate": 6649,
      "ĠMSG": 6650,
      "metric": 6651,
      "ĠAst": 6652,
      "ugges": 6653,
      "Ġalt": 6654,
      "ĠDisabled": 6655,
      "ĠZoo": 6656,
      "ĠPartic": 6657,
      "ĠLocations": 6658,
      "Ġdifference": 6659,
      "Ġdigits": 6660,
      "ĠISO": 6661,
      "Ġnano": 6662,
      "Ġthrown": 6663,
      "Ġapplied": 6664,
      "RIPT": 6665,
      "ĠDiscovery": 6666,
      "Ġibm": 6667,
      "OSE": 6668,
      "ĠSESSION": 6669,
      "ĠCOUNT": 6670,
      "Ġpm": 6671,
      "ĠWorkplace": 6672,
      "ĠMinutes": 6673,
      "PLATE": 6674,
      "ĠCF": 6675,
      "Ġbc": 6676,
      "Ġdon": 6677,
      "Ġappro": 6678,
      "Ġimmediate": 6679,
      "Ġacquire": 6680,
      "ĠFramework": 6681,
      "ĠMembership": 6682,
      "ons": 6683,
      "Ġcycle": 6684,
      "ĠMy": 6685,
      "Ġbuilt": 6686,
      "apes": 6687,
      "Ġanchor": 6688,
      "Ġlisten": 6689,
      "Ġunsigned": 6690,
      "Ġdecrypt": 6691,
      "Ġaddresses": 6692,
      "Ġrgb": 6693,
      "ĠOrientation": 6694,
      "self": 6695,
      "TL": 6696,
      "Ġmc": 6697,
      "Ġtoo": 6698,
      "query": 6699,
      "ĠJDBC": 6700,
      "ĠHashtable": 6701,
      "Ġpositions": 6702,
      "Compares": 6703,
      "ĠCHECK": 6704,
      "Ġpersistence": 6705,
      "ĠBYTES": 6706,
      "Clears": 6707,
      "rease": 6708,
      "Ġminutes": 6709,
      "ISS": 6710,
      "ĠSpatial": 6711,
      "Ġrawtypes": 6712,
      "Ġproblem": 6713,
      "CR": 6714,
      "urer": 6715,
      "ĠPRI": 6716,
      "Ġmag": 6717,
      "Ġinjection": 6718,
      "ĠFAILED": 6719,
      "Ġworld": 6720,
      "getter": 6721,
      "URN": 6722,
      "plete": 6723,
      "ĠAtoms": 6724,
      "Ġslash": 6725,
      "Ġinvoked": 6726,
      "umbnail": 6727,
      "ĠOperand": 6728,
      "Ġann": 6729,
      "ĠComput": 6730,
      "ĠUnder": 6731,
      "Ġupgrade": 6732,
      "obile": 6733,
      "ĠInvoke": 6734,
      "ĠNeighb": 6735,
      "Ġintersection": 6736,
      "TODO": 6737,
      "ĠSEVERE": 6738,
      "bl": 6739,
      "ĠMargin": 6740,
      "Ġfunctions": 6741,
      "ĠResolved": 6742,
      "ĠPhrase": 6743,
      "Ġcoords": 6744,
      "Ġfos": 6745,
      "ĠEpoch": 6746,
      "ĠDelimiter": 6747,
      "ĠPartial": 6748,
      "iki": 6749,
      "CES": 6750,
      "ULE": 6751,
      "za": 6752,
      "Ġcandidates": 6753,
      "ĠCr": 6754,
      "Ġpd": 6755,
      "ĠDump": 6756,
      "ĠAdditional": 6757,
      "Ġproviders": 6758,
      "ycler": 6759,
      "ĠARG": 6760,
      "ĠSingleton": 6761,
      "ĠNav": 6762,
      "acam": 6763,
      "ĠKer": 6764,
      "Defines": 6765,
      "essment": 6766,
      "ĠOrdering": 6767,
      "Option": 6768,
      "aign": 6769,
      "Ġpub": 6770,
      "ĠOrdered": 6771,
      "Ġreplication": 6772,
      "ampaign": 6773,
      "ĠLoaded": 6774,
      "ĠSUC": 6775,
      "ĠInitialized": 6776,
      "ĠLOCAL": 6777,
      "ĠUpdater": 6778,
      "ĠAccumul": 6779,
      "sures": 6780,
      "ĠEle": 6781,
      "ĠRa": 6782,
      "Ġfore": 6783,
      "ĠDestroy": 6784,
      "Ġinvoking": 6785,
      "Ġscalar": 6786,
      ",'": 6787,
      "names": 6788,
      "ĠCODES": 6789,
      "ĠJN": 6790,
      "Ġ','": 6791,
      "Ġplayer": 6792,
      "enari": 6793,
      "ĠNow": 6794,
      "Ġband": 6795,
      "Ġhandling": 6796,
      "Ġoptionally": 6797,
      "rong": 6798,
      "ĠSL": 6799,
      "ĠSas": 6800,
      "ĠCircuit": 6801,
      "Ġbookmark": 6802,
      "Ġrepo": 6803,
      "ĠSchem": 6804,
      "ĠFlat": 6805,
      "ĠSwitch": 6806,
      "ierarchical": 6807,
      "ĠTranslator": 6808,
      "KEY": 6809,
      "qn": 6810,
      "Ġnn": 6811,
      "ĠIgn": 6812,
      "ides": 6813,
      "Ġsubset": 6814,
      "Ġdistribution": 6815,
      "Ġrecover": 6816,
      "Ġassociate": 6817,
      "ĠSHA": 6818,
      "Definition": 6819,
      "ĠSDK": 6820,
      "Text": 6821,
      "Tries": 6822,
      "pa": 6823,
      "Ġ_": 6824,
      "Ġtargets": 6825,
      "ĠExample": 6826,
      "Ġhours": 6827,
      "uman": 6828,
      "ĠGo": 6829,
      "ĠKeyword": 6830,
      "Ġwhitespace": 6831,
      "setter": 6832,
      "ĠCaller": 6833,
      "Ġordering": 6834,
      "Ġwaiter": 6835,
      "Encodes": 6836,
      "ĠNumbers": 6837,
      "Des": 6838,
      "ially": 6839,
      "olicy": 6840,
      "Ġttl": 6841,
      "ĠTensor": 6842,
      "ĠQueries": 6843,
      "Ġcompact": 6844,
      "Ġart": 6845,
      "ĠPhase": 6846,
      "Validate": 6847,
      "Ġsyntax": 6848,
      "Iter": 6849,
      "OAD": 6850,
      "ĠCs": 6851,
      "itelist": 6852,
      "olves": 6853,
      "ĠClassifier": 6854,
      "Ġremoves": 6855,
      "ĠTranslation": 6856,
      "Ġstatements": 6857,
      "ĠCSV": 6858,
      "allenge": 6859,
      "II": 6860,
      "Ġtemplates": 6861,
      "orer": 6862,
      "ĠNORMAL": 6863,
      "Ġprobe": 6864,
      "ĠIdle": 6865,
      "Ġexpire": 6866,
      "Ġsep": 6867,
      "Ġurls": 6868,
      "ĠModules": 6869,
      "ĠSessions": 6870,
      "Ġconfigurations": 6871,
      "ĠMultimap": 6872,
      "Ġpopup": 6873,
      "Ġconsider": 6874,
      "uation": 6875,
      "ĠPicker": 6876,
      "Ġencoder": 6877,
      "ĠShadow": 6878,
      "ĠMonomer": 6879,
      "SI": 6880,
      "We": 6881,
      "aug": 6882,
      "data": 6883,
      "als": 6884,
      "Ġcost": 6885,
      "ĠPUBL": 6886,
      "Ġequivalent": 6887,
      "uting": 6888,
      "ITIVE": 6889,
      "ĠContainers": 6890,
      "icture": 6891,
      "Ġoccur": 6892,
      "Ġrewrite": 6893,
      "Ġsender": 6894,
      "Ġmut": 6895,
      "ĠMAN": 6896,
      "ĠDatas": 6897,
      "Ġlazy": 6898,
      "oose": 6899,
      "ĠLogs": 6900,
      "ĠUrls": 6901,
      "ĠCONTEXT": 6902,
      "ĠDESCRIPTION": 6903,
      "ĠSarl": 6904,
      "enk": 6905,
      "ĠCross": 6906,
      "ĠMongo": 6907,
      "ĠNear": 6908,
      "ĠNAMES": 6909,
      "ĠUpdates": 6910,
      "AMP": 6911,
      "phab": 6912,
      "Ġrestart": 6913,
      "Ġrand": 6914,
      "Ġmany": 6915,
      "ĠMEM": 6916,
      "ĠNs": 6917,
      "Ġstrict": 6918,
      "Ġcompiled": 6919,
      "ĠAdjust": 6920,
      "enchmark": 6921,
      "ĠFFDC": 6922,
      "User": 6923,
      "hance": 6924,
      "nn": 6925,
      "ats": 6926,
      "Ġintegration": 6927,
      "ĠDsl": 6928,
      "Ġelapsed": 6929,
      "ĠAndroid": 6930,
      "ĠSecondary": 6931,
      "ACTION": 6932,
      "Ġprobability": 6933,
      "20180": 6934,
      "ĠFailover": 6935,
      "Ġseparated": 6936,
      "Fl": 6937,
      "Ġpi": 6938,
      "ĠRetrie": 6939,
      "Ġwildcard": 6940,
      "Ġlogical": 6941,
      "Ġpreferred": 6942,
      "ĠINS": 6943,
      "Ġabort": 6944,
      "ĠCDK": 6945,
      "ĠSCHEM": 6946,
      "den": 6947,
      "ĠPORT": 6948,
      "ĠNested": 6949,
      "ĠBook": 6950,
      "Ġancestor": 6951,
      "Ġdeep": 6952,
      "Ġexecuted": 6953,
      "Ġframework": 6954,
      "READ": 6955,
      "orical": 6956,
      "ĠRED": 6957,
      "Ġminus": 6958,
      "ĠDirs": 6959,
      "ĠDevices": 6960,
      "ĠQuota": 6961,
      "ĠNUMBER": 6962,
      "acamole": 6963,
      "ĠCategories": 6964,
      "Ġpin": 6965,
      "ĠPress": 6966,
      "ĠRad": 6967,
      "Ġdates": 6968,
      "Ġcompress": 6969,
      "udes": 6970,
      "ĠDecode": 6971,
      "ĠTimes": 6972,
      "Ġsigned": 6973,
      "Ġcounters": 6974,
      "ĠPackages": 6975,
      "ĠParsing": 6976,
      "alker": 6977,
      "ĠMO": 6978,
      "ubles": 6979,
      "ĠDAT": 6980,
      "ima": 6981,
      "ĠProvision": 6982,
      "ĠDeg": 6983,
      "Ġemits": 6984,
      "ĠComparison": 6985,
      "ĠEscape": 6986,
      "Ġetc": 6987,
      "Ġtax": 6988,
      "ĠgetFS": 6989,
      "Ġoper": 6990,
      "seudo": 6991,
      "ĠTouch": 6992,
      "Ġindividual": 6993,
      "Ġpropag": 6994,
      "ĠEndpoints": 6995,
      "Ac": 6996,
      "XY": 6997,
      "ĠIF": 6998,
      "Ġwould": 6999,
      "Ġwrites": 7000,
      "Ġprepared": 7001,
      "Ġack": 7002,
      "Result": 7003,
      "ĠFully": 7004,
      "ircle": 7005,
      "uxio": 7006,
      "Ġencryption": 7007,
      "ubscri": 7008,
      "Ġabstract": 7009,
      "ĠDeclaring": 7010,
      "enkins": 7011,
      "ough": 7012,
      "Ġrw": 7013,
      "ĠRanges": 7014,
      "ĠNS": 7015,
      "ĠDiagnostic": 7016,
      "Ġhy": 7017,
      "Ġklass": 7018,
      "Ġbehav": 7019,
      "Ġalignment": 7020,
      "ĠOnt": 7021,
      "ĠScalar": 7022,
      "ĠOPEN": 7023,
      "ĠPolling": 7024,
      "Ġ6": 7025,
      "Ġgit": 7026,
      "ĠWORK": 7027,
      "iry": 7028,
      "Ġhealth": 7029,
      "arning": 7030,
      "ĠFraction": 7031,
      "ĠPairs": 7032,
      "ĠScriptable": 7033,
      "Prints": 7034,
      "ĠProblem": 7035,
      "nt": 7036,
      "ti": 7037,
      "Ġ#": 7038,
      "ĠSECOND": 7039,
      "ĠCmd": 7040,
      "Ġthese": 7041,
      "Ġfine": 7042,
      "ĠContains": 7043,
      "ĠNormalized": 7044,
      "ĠPlayer": 7045,
      "BB": 7046,
      "TS": 7047,
      "Ġcu": 7048,
      "ĠClear": 7049,
      "Ġlifecycle": 7050,
      "Ġdiag": 7051,
      "ĠConstruct": 7052,
      "erve": 7053,
      "ĠCalcul": 7054,
      "ĠArch": 7055,
      "Ġaccessor": 7056,
      "ĠIndent": 7057,
      "Ġemitted": 7058,
      "ĠOptim": 7059,
      "ĠTEMPLATE": 7060,
      "vation": 7061,
      "ĠBas": 7062,
      "Ġjj": 7063,
      "opied": 7064,
      "ĠAggregate": 7065,
      "Ġcombined": 7066,
      "ENDING": 7067,
      "Mod": 7068,
      "eros": 7069,
      "search": 7070,
      "ĠDecision": 7071,
      "ĠIncrement": 7072,
      "Sch": 7073,
      "side": 7074,
      "ĠSamples": 7075,
      "Ġfis": 7076,
      "ĠTARGET": 7077,
      "ĠDN": 7078,
      "ĠBio": 7079,
      "Ġhere": 7080,
      "Ġposs": 7081,
      "Ġalg": 7082,
      "ĠFormatted": 7083,
      "ĠPROT": 7084,
      "RM": 7085,
      "ĠSK": 7086,
      "Ġaverage": 7087,
      "ĠDrag": 7088,
      "ĠFULL": 7089,
      "Ġresume": 7090,
      "obot": 7091,
      "bean": 7092,
      "Ġlocked": 7093,
      "ĠQUERY": 7094,
      "ĠFinished": 7095,
      "Attempts": 7096,
      "ĠDeserializer": 7097,
      "munication": 7098,
      "ĠSelf": 7099,
      "Ġpower": 7100,
      "ĠDeriv": 7101,
      "Ġdue": 7102,
      "ueued": 7103,
      "ĠCapture": 7104,
      "ĠBlack": 7105,
      "Ġmultiply": 7106,
      "ĠFACTORY": 7107,
      "20": 7108,
      "DN": 7109,
      "GE": 7110,
      "Mark": 7111,
      "Ġnb": 7112,
      "Ġgrow": 7113,
      "Ġeffective": 7114,
      "ĠWeak": 7115,
      "ĠSibling": 7116,
      "ĠInsights": 7117,
      "Ġneighbor": 7118,
      "ĠSOURCE": 7119,
      "ĠPAGE": 7120,
      "ĠNet": 7121,
      "Ġdictionary": 7122,
      "Ġcontract": 7123,
      "ird": 7124,
      "ĠJinx": 7125,
      "Ġcomplex": 7126,
      "Ġbeans": 7127,
      "Ġquant": 7128,
      "ĠTexture": 7129,
      "EFT": 7130,
      "Ġpreview": 7131,
      "Ġdesign": 7132,
      "ĠINFIN": 7133,
      "ĠARN": 7134,
      "Calls": 7135,
      "Ġorientation": 7136,
      "memo": 7137,
      "enance": 7138,
      "Ġnat": 7139,
      "Ġgsl": 7140,
      "Ġgetting": 7141,
      "ĠLng": 7142,
      "ĠLEFT": 7143,
      "ĠWID": 7144,
      "Ġrels": 7145,
      "Ġblack": 7146,
      "Ġawt": 7147,
      "ĠEXTENSION": 7148,
      "ĠWrapped": 7149,
      "ĠSUCCESS": 7150,
      "ĠDns": 7151,
      "periment": 7152,
      "Ġdecoder": 7153,
      "atern": 7154,
      "ĠDryRun": 7155,
      "ĠEffective": 7156,
      "Ġminute": 7157,
      "Ind": 7158,
      "ĠBoundary": 7159,
      "ĠMinimum": 7160,
      "Ġrotate": 7161,
      "Ġvertical": 7162,
      "ĠPolymer": 7163,
      "Sim": 7164,
      "ĠND": 7165,
      "ĠLD": 7166,
      "ĠBag": 7167,
      "Ġhorizontal": 7168,
      "ĠComb": 7169,
      "Ġunexpected": 7170,
      "Ġinterrupted": 7171,
      "imited": 7172,
      "aintenance": 7173,
      "ĠWaiter": 7174,
      "Ġticket": 7175,
      "Ġautomatic": 7176,
      "ĠReplacement": 7177,
      "ĠFROM": 7178,
      "built": 7179,
      "ĠSsh": 7180,
      "Ġinstrument": 7181,
      "ĠBACK": 7182,
      "Ġannot": 7183,
      "Ġcompression": 7184,
      "ATIVE": 7185,
      "ĠUpgrade": 7186,
      "Ġparents": 7187,
      "Ġdispose": 7188,
      "ĠMultipart": 7189,
      "ĠResolve": 7190,
      "Ġbinder": 7191,
      "Ġlatest": 7192,
      "ĠFLO": 7193,
      "Ġbroadcast": 7194,
      "ĠMaterial": 7195,
      "ĠRadius": 7196,
      "Ġbeta": 7197,
      "ĠLive": 7198,
      "Ġprocedure": 7199,
      "Ġbeginning": 7200,
      "Ġconcurrent": 7201,
      "Ġimplemented": 7202,
      "Ġattached": 7203,
      "Ġcells": 7204,
      "Ġsimilar": 7205,
      "Searches": 7206,
      "ĠImplementation": 7207,
      "auge": 7208,
      "He": 7209,
      "iors": 7210,
      "ĠSensitive": 7211,
      "ĠPipe": 7212,
      "ĠRew": 7213,
      "Ġbos": 7214,
      "ĠHEL": 7215,
      "ERO": 7216,
      "ĠAnn": 7217,
      "ĠMovie": 7218,
      "ĠLOCK": 7219,
      "Ġtools": 7220,
      "Ġinjector": 7221,
      "PACE": 7222,
      "Ġfloor": 7223,
      "ĠRF": 7224,
      "ĠFaps": 7225,
      "ĠFooter": 7226,
      "reat": 7227,
      "app": 7228,
      "Ġresulting": 7229,
      "ĠDeleg": 7230,
      "Ġclaim": 7231,
      "Ġscopes": 7232,
      "ĠAck": 7233,
      "Ġoverlap": 7234,
      "PATH": 7235,
      "ĠENCODING": 7236,
      "256": 7237,
      "ae": 7238,
      "aemon": 7239,
      "Ġsip": 7240,
      "icted": 7241,
      "Ġpipe": 7242,
      "ĠMicro": 7243,
      "Ġkeystore": 7244,
      "Changes": 7245,
      "ĠDetection": 7246,
      "Property": 7247,
      "ĠPhysical": 7248,
      "ĠProtection": 7249,
      "IFIER": 7250,
      "ĠMacro": 7251,
      "URRENT": 7252,
      "ĠRepresentation": 7253,
      "UST": 7254,
      "ĠPe": 7255,
      "Ġoffsets": 7256,
      "INK": 7257,
      "Ġsubtract": 7258,
      "Ġ'\"'": 7259,
      "ĠInterp": 7260,
      "ĠRelated": 7261,
      "ĠChannels": 7262,
      "Ġcallbacks": 7263,
      "Ġdeclaring": 7264,
      "Ġflatten": 7265,
      "Ġcomparison": 7266,
      "aternion": 7267,
      "-'": 7268,
      "env": 7269,
      "Ġcat": 7270,
      "ĠDap": 7271,
      "ĠBridge": 7272,
      "ĠUSE": 7273,
      "Ġhint": 7274,
      "ĠProbe": 7275,
      "Ġ&=": 7276,
      "ĠHeap": 7277,
      "Ġ'-'": 7278,
      "Ġrecipient": 7279,
      "ĠCanvas": 7280,
      "ĠExpired": 7281,
      "ĠRendering": 7282,
      "Ġblank": 7283,
      "ĠLatitude": 7284,
      "method": 7285,
      "imits": 7286,
      "ĠStreaming": 7287,
      "Ġlogic": 7288,
      "ĠAllocation": 7289,
      "Ġ11": 7290,
      "ĠGuacamole": 7291,
      "ĠAppendable": 7292,
      "Ġcardinality": 7293,
      "ĠRETURN": 7294,
      "Ġfacet": 7295,
      "ĠKeras": 7296,
      "bind": 7297,
      "ĠPv": 7298,
      "ĠBetween": 7299,
      "Ġtouch": 7300,
      "tein": 7301,
      "ocab": 7302,
      "ĠHadoop": 7303,
      "acket": 7304,
      "Ġcompatible": 7305,
      "ĠSTREAM": 7306,
      "Ġdocumentation": 7307,
      "Ġcaption": 7308,
      "Action": 7309,
      "ĠSol": 7310,
      "ality": 7311,
      "Ġmixin": 7312,
      "Ġinfl": 7313,
      "ĠDer": 7314,
      "eloc": 7315,
      "ĠWRITE": 7316,
      "tecode": 7317,
      "Ġfutures": 7318,
      "ĠTASK": 7319,
      "ĠMARK": 7320,
      "ĠDuplicate": 7321,
      "Ġdup": 7322,
      "ĠHOUR": 7323,
      "Address": 7324,
      "Ġlocalized": 7325,
      "Ġpartitions": 7326,
      "ociate": 7327,
      "Ġhosts": 7328,
      "Ġutf": 7329,
      "Ġquality": 7330,
      "ĠOffline": 7331,
      "uced": 7332,
      "Ġdeleg": 7333,
      "ialect": 7334,
      "Ġleader": 7335,
      "ĠAppender": 7336,
      "Replace": 7337,
      "Ġappe": 7338,
      "Ġportlet": 7339,
      "ĠGENER": 7340,
      "22": 7341,
      "\\'": 7342,
      "synchronized": 7343,
      "Ġsteps": 7344,
      "anza": 7345,
      "Ġbi": 7346,
      "Ġeq": 7347,
      "ĠBool": 7348,
      "ĠGR": 7349,
      "Ġ'\\\\'": 7350,
      "Ġencrypted": 7351,
      "enario": 7352,
      "ru": 7353,
      "ĠSizes": 7354,
      "Ġcircuit": 7355,
      "Ġprim": 7356,
      "ĠTEN": 7357,
      "ĠgetC": 7358,
      "ĠReq": 7359,
      "Ġhidden": 7360,
      "ERE": 7361,
      "Ġidle": 7362,
      "avail": 7363,
      "ĠHeartbeat": 7364,
      "ĠSpecial": 7365,
      "Ġtrimmed": 7366,
      "Ġsketch": 7367,
      "Ġpixels": 7368,
      "Verifies": 7369,
      "Output": 7370,
      "OPE": 7371,
      "PING": 7372,
      "Ġleg": 7373,
      "Ġsax": 7374,
      "Ġcamera": 7375,
      "orian": 7376,
      "ĠCf": 7377,
      "Ġpot": 7378,
      "Ġmodification": 7379,
      "Ġcorp": 7380,
      "Ġmembership": 7381,
      "ĠFLOAT": 7382,
      "Wrap": 7383,
      "mpt": 7384,
      "ĠSM": 7385,
      "ĠFutures": 7386,
      "Ġdid": 7387,
      "ĠKeep": 7388,
      "Ġdelim": 7389,
      "Ġcorner": 7390,
      "Ġresponder": 7391,
      "Ġrv": 7392,
      "ĠHours": 7393,
      "ĠKnown": 7394,
      "ĠSubstit": 7395,
      "ĠZoned": 7396,
      "ĠSchedul": 7397,
      "regorian": 7398,
      "Ġmarked": 7399,
      "ĠSYSTEM": 7400,
      "Bind": 7401,
      "WORD": 7402,
      "fx": 7403,
      "xies": 7404,
      "ester": 7405,
      "Ġfit": 7406,
      "ĠSubmit": 7407,
      "ĠPositive": 7408,
      "ĠGran": 7409,
      "ffic": 7410,
      "ippet": 7411,
      "ĠVertices": 7412,
      "Override": 7413,
      "Ġaround": 7414,
      "Ġinverse": 7415,
      "rev": 7416,
      "thing": 7417,
      "ĠGrouped": 7418,
      "ĠTimex": 7419,
      "ĠXpath": 7420,
      "ĠTargeting": 7421,
      "Ġreflection": 7422,
      "Ġmouse": 7423,
      "Resets": 7424,
      "ĠRestore": 7425,
      "TIME": 7426,
      "ĠCO": 7427,
      "ĠCoverage": 7428,
      "Ġflip": 7429,
      "ĠNON": 7430,
      "ĠFar": 7431,
      "Ġlit": 7432,
      "abler": 7433,
      "Ġxy": 7434,
      "ĠDisable": 7435,
      "ĠFrames": 7436,
      "ĠBLOCK": 7437,
      "Ġcuda": 7438,
      "atisfied": 7439,
      "available": 7440,
      "BE": 7441,
      "Ġavoid": 7442,
      "Ġepoch": 7443,
      "Ġrefer": 7444,
      "ervation": 7445,
      "ENC": 7446,
      "Ġitself": 7447,
      "ĠLocales": 7448,
      "ANCE": 7449,
      "Ġvisited": 7450,
      "ĠIssuer": 7451,
      "activate": 7452,
      "ĠParticipant": 7453,
      "averse": 7454,
      "xid": 7455,
      "Ġren": 7456,
      "ĠCli": 7457,
      "ĠLetter": 7458,
      "ĠVfs": 7459,
      "ĠVoice": 7460,
      "ĠEnter": 7461,
      "ĠUnchecked": 7462,
      "ĠOffer": 7463,
      "mous": 7464,
      "ills": 7465,
      "ĠLeader": 7466,
      "Ġminor": 7467,
      "Ġimported": 7468,
      "ĠAggregation": 7469,
      "ĠAssessment": 7470,
      "PRO": 7471,
      "UCT": 7472,
      "Ġnanos": 7473,
      "ĠPRE": 7474,
      "Ġob": 7475,
      "ARL": 7476,
      "Ġinitialization": 7477,
      "ĠReduce": 7478,
      "Ġenumeration": 7479,
      "POINT": 7480,
      "ĠFleet": 7481,
      "Ġgallery": 7482,
      "ĠLt": 7483,
      "ĠExpl": 7484,
      "Ġreject": 7485,
      "Ġcolors": 7486,
      "ĠINTERNAL": 7487,
      "ĠModify": 7488,
      "Ġframes": 7489,
      "Status": 7490,
      "ĠNegative": 7491,
      "Ġestimate": 7492,
      "onymous": 7493,
      "ĠAscii": 7494,
      "ALE": 7495,
      "Server": 7496,
      "jb": 7497,
      "xml": 7498,
      "Ġuid": 7499,
      "ĠEC": 7500,
      "ĠRIGHT": 7501,
      "Ġhaving": 7502,
      "Ġstride": 7503,
      "Ġshadow": 7504,
      "ĠInputs": 7505,
      "ĠAuthenticated": 7506,
      "Ġevaluation": 7507,
      "Ġsecure": 7508,
      "ĠACCESS": 7509,
      "ĠBroadcast": 7510,
      "Ġtemporal": 7511,
      "Specifies": 7512,
      "Ġdeleteresource": 7513,
      "Error": 7514,
      "Put": 7515,
      "Sk": 7516,
      "peated": 7517,
      "Ġshipping": 7518,
      "ĠPreferred": 7519,
      "ĠFormats": 7520,
      "Ġrecovery": 7521,
      "ummy": 7522,
      "ĠAliases": 7523,
      "ĠMonitoring": 7524,
      "Ġcnt": 7525,
      "ĠPARAMETER": 7526,
      "elocity": 7527,
      "AO": 7528,
      "kit": 7529,
      "ĠAWS": 7530,
      "Ġremoving": 7531,
      "ĠZERO": 7532,
      "ĠCompilation": 7533,
      "ĠUnsafe": 7534,
      "Ġcsv": 7535,
      "Ġblk": 7536,
      "ĠDirectories": 7537,
      "ĠRotation": 7538,
      "PON": 7539,
      "bb": 7540,
      "Ġcred": 7541,
      "ĠCrypto": 7542,
      "olved": 7543,
      "Ġconverts": 7544,
      "izers": 7545,
      "Ġchat": 7546,
      "ĠINPUT": 7547,
      "Ġlinear": 7548,
      "ĠTerminal": 7549,
      "ĠSoap": 7550,
      "Ġunsetresource": 7551,
      "cade": 7552,
      "ĠSO": 7553,
      "ĠCandidates": 7554,
      "Ġie": 7555,
      "Ġtheta": 7556,
      "ĠRoom": 7557,
      "ĠMULT": 7558,
      "ĠRele": 7559,
      "Ġiso": 7560,
      "ĠJms": 7561,
      "ainter": 7562,
      "Ġtxn": 7563,
      "Ġunmarshal": 7564,
      "phabet": 7565,
      "Rule": 7566,
      "Ġprior": 7567,
      "Ġmargin": 7568,
      "Ġlo": 7569,
      "ĠBid": 7570,
      "plified": 7571,
      "Ġalways": 7572,
      "Ġexpired": 7573,
      "ĠIDs": 7574,
      "Resolves": 7575,
      "Ġdiscard": 7576,
      "Matches": 7577,
      "Puts": 7578,
      "Ġsparse": 7579,
      "itter": 7580,
      "ĠFs": 7581,
      "ĠOper": 7582,
      "ĠHierarchical": 7583,
      "Ġhs": 7584,
      "ĠSTOP": 7585,
      "Ġboundary": 7586,
      "ularity": 7587,
      "000": 7588,
      "Ġremain": 7589,
      "lipse": 7590,
      "Ġsentence": 7591,
      "ĠONE": 7592,
      "ĠExclusive": 7593,
      "ĠOUTPUT": 7594,
      "ĠINFINITY": 7595,
      "Close": 7596,
      "_'": 7597,
      "Ġsamples": 7598,
      "url": 7599,
      "Ġix": 7600,
      "Ġfd": 7601,
      "ĠIT": 7602,
      "Ġdi": 7603,
      "Ġexpl": 7604,
      "ĠLogical": 7605,
      "Ġ'_'": 7606,
      "Ġreporter": 7607,
      "ĠCompatible": 7608,
      "ĠToolbar": 7609,
      "Ġvpnglobal": 7610,
      "ortion": 7611,
      "Ġavailability": 7612,
      "Ġpivot": 7613,
      "ĠRo": 7614,
      "une": 7615,
      "otos": 7616,
      "ĠProfiles": 7617,
      "oster": 7618,
      "Ġ/=": 7619,
      "Ġinteraction": 7620,
      "ĠCommands": 7621,
      "ĠCorp": 7622,
      "ndi": 7623,
      "Ġsel": 7624,
      "orph": 7625,
      "ĠTwo": 7626,
      "isk": 7627,
      "ĠFAIL": 7628,
      "ĠOmemo": 7629,
      "ĠBilling": 7630,
      "ĠHive": 7631,
      "Ġshell": 7632,
      "OTE": 7633,
      "Ġverbose": 7634,
      "ĠAcceptor": 7635,
      "ĠMean": 7636,
      "Ġplugins": 7637,
      "ĠSwap": 7638,
      "Ġentire": 7639,
      "ĠORDER": 7640,
      "ismatch": 7641,
      "Ġsuspend": 7642,
      "Ġci": 7643,
      "ĠTOP": 7644,
      "ulate": 7645,
      "ĠMust": 7646,
      "ital": 7647,
      "ĠExact": 7648,
      "Ġenclosing": 7649,
      "ĠDecom": 7650,
      "ĠPROJECT": 7651,
      "Ġimplements": 7652,
      "ĠQuality": 7653,
      "Ġignoring": 7654,
      "LINE": 7655,
      "ĠRT": 7656,
      "ĠRank": 7657,
      "ĠFE": 7658,
      "ĠHidden": 7659,
      "ĠStub": 7660,
      "Ġexcept": 7661,
      "ĠJVM": 7662,
      "Ġjp": 7663,
      "ĠInfin": 7664,
      "Ġobservable": 7665,
      "Opens": 7666,
      "IB": 7667,
      "junct": 7668,
      "Ġsalt": 7669,
      "ulator": 7670,
      "ĠAT": 7671,
      "ĠInherit": 7672,
      "ĠWildcard": 7673,
      "Ġseg": 7674,
      "Ġalong": 7675,
      "Ġdeliver": 7676,
      "ĠGradient": 7677,
      "ĠBehaviors": 7678,
      "Vis": 7679,
      "ji": 7680,
      "ĠEval": 7681,
      "ĠgetR": 7682,
      "ĠRecursive": 7683,
      "ĠManagers": 7684,
      "ĠNavig": 7685,
      "Ġdao": 7686,
      "Ġrepeat": 7687,
      "ĠMeter": 7688,
      "Internal": 7689,
      "Ġgeneration": 7690,
      "Ġsending": 7691,
      "ĠRecomm": 7692,
      "ĠSymbols": 7693,
      "adians": 7694,
      "ĠDELIMIT": 7695,
      "ĠCONNECTION": 7696,
      "Ġtogether": 7697,
      "Client": 7698,
      "IA": 7699,
      "gest": 7700,
      "ĠSer": 7701,
      "Ġfmt": 7702,
      "ĠOtp": 7703,
      "ĠGeom": 7704,
      "ĠKafka": 7705,
      "ĠChooser": 7706,
      "IDE": 7707,
      "Ġmodifier": 7708,
      "Ġconsole": 7709,
      "When": 7710,
      "Ġreplacing": 7711,
      "Ġsanit": 7712,
      "ĠresponseFields": 7713,
      "Ġformats": 7714,
      "ĠInteraction": 7715,
      "ĠWorking": 7716,
      "Ġspaces": 7717,
      "Ġwebhook": 7718,
      "echan": 7719,
      "Ġpurge": 7720,
      "ĠWIDTH": 7721,
      "MIN": 7722,
      "ZIP": 7723,
      "ĠMATCH": 7724,
      "ĠDen": 7725,
      "ĠExtr": 7726,
      "ĠUi": 7727,
      "ĠJwt": 7728,
      "Ġdoclet": 7729,
      "ĠButtons": 7730,
      "ognized": 7731,
      "Ġlbvserver": 7732,
      "defined": 7733,
      "Impl": 7734,
      "Ġauthenticate": 7735,
      "Model": 7736,
      "frame": 7737,
      "Ġpy": 7738,
      "Ġwhole": 7739,
      "ips": 7740,
      "Ġexecutable": 7741,
      "Ġlocales": 7742,
      "precation": 7743,
      "Ġissues": 7744,
      "ĠCUST": 7745,
      "ĠCtx": 7746,
      "Move": 7747,
      "Ġcut": 7748,
      "ĠTcp": 7749,
      "ĠPACK": 7750,
      "Ġinstalled": 7751,
      "Ġlive": 7752,
      "ife": 7753,
      "Ġpretty": 7754,
      "ITLE": 7755,
      "ryo": 7756,
      "Ġclients": 7757,
      "Ġruns": 7758,
      "Ġuima": 7759,
      "Ġneg": 7760,
      "ĠOpcode": 7761,
      "ĠSCOPE": 7762,
      "ycl": 7763,
      "Ġtv": 7764,
      "ĠSynchron": 7765,
      "ĠClip": 7766,
      "ĠPK": 7767,
      "ĠFallback": 7768,
      "ĠHAND": 7769,
      "ĠJenkins": 7770,
      "ĠDeep": 7771,
      "ERENCE": 7772,
      "lector": 7773,
      "preter": 7774,
      "edicated": 7775,
      "ĠVALID": 7776,
      "Ġarch": 7777,
      "ĠANY": 7778,
      "ĠEditable": 7779,
      "Ġ^=": 7780,
      "ĠLEVEL": 7781,
      "array": 7782,
      "fficient": 7783,
      "Pop": 7784,
      "Table": 7785,
      "Takes": 7786,
      "ĠRtf": 7787,
      "ĠGson": 7788,
      "ĠComments": 7789,
      "param": 7790,
      "Ġplane": 7791,
      "Ġinclusive": 7792,
      "Ġfailover": 7793,
      "Ġcombine": 7794,
      "Runs": 7795,
      "ubscribe": 7796,
      "TON": 7797,
      "ĠSR": 7798,
      "ĠDOC": 7799,
      "adoc": 7800,
      "ATURE": 7801,
      "Ġsha": 7802,
      "Report": 7803,
      "Ġexpires": 7804,
      "ĠPositions": 7805,
      "Ġopenc": 7806,
      "ĠSpaces": 7807,
      "ĠUTC": 7808,
      "Ġaliases": 7809,
      "Ġrealm": 7810,
      "ĠConsole": 7811,
      "ĠTemporary": 7812,
      "HTML": 7813,
      "day": 7814,
      "vant": 7815,
      "ĠSARL": 7816,
      "ĠTYP": 7817,
      "ĠPASS": 7818,
      "ĠRI": 7819,
      "Ġwish": 7820,
      "Ġconcept": 7821,
      "endor": 7822,
      "ĠJD": 7823,
      "Ġprefixes": 7824,
      "Provid": 7825,
      "ĠTermination": 7826,
      "Ġdisplayed": 7827,
      "ĠPeering": 7828,
      "ĠWEB": 7829,
      "Sup": 7830,
      "lets": 7831,
      "Ġtw": 7832,
      "ĠPower": 7833,
      "amps": 7834,
      "Ġprofiles": 7835,
      "Ġhi": 7836,
      "ĠJid": 7837,
      "Ġdead": 7838,
      "lements": 7839,
      "ĠContexts": 7840,
      "ĠHttps": 7841,
      "LEAN": 7842,
      "Ġ16": 7843,
      "ĠMoney": 7844,
      "End": 7845,
      "ĠDbl": 7846,
      "ĠCommons": 7847,
      "EK": 7848,
      "hing": 7849,
      "estion": 7850,
      "Ġdere": 7851,
      "ĠHello": 7852,
      "ĠStation": 7853,
      "ĠUnion": 7854,
      "ĠServers": 7855,
      "Ġreplaced": 7856,
      "ĠWebhook": 7857,
      "Ġhttps": 7858,
      "Prod": 7859,
      "Ġexclusive": 7860,
      "ĠACL": 7861,
      "ĠSubscribe": 7862,
      "entroid": 7863,
      "ĠDIRECTORY": 7864,
      "node": 7865,
      "ĠSound": 7866,
      "Ġroom": 7867,
      "Ġnv": 7868,
      "ĠCassandra": 7869,
      "ĠAF": 7870,
      "Ġbund": 7871,
      "ĠDR": 7872,
      "licable": 7873,
      "Ġ201": 7874,
      "Ġaccepts": 7875,
      "Formats": 7876,
      "ĠCUSTOM": 7877,
      "Rec": 7878,
      "Ġcrc": 7879,
      "Ġpv": 7880,
      "Ġlarge": 7881,
      "ĠJAV": 7882,
      "ĠAlign": 7883,
      "Ġzk": 7884,
      "UTES": 7885,
      "Ġaccessible": 7886,
      "ĠExpiration": 7887,
      "ĠDimensions": 7888,
      "ĠAttrs": 7889,
      "ĠTesting": 7890,
      "Ġdistinct": 7891,
      "Ġchrono": 7892,
      "ĠTENANT": 7893,
      "Draw": 7894,
      "ora": 7895,
      "Ġmolecule": 7896,
      "itable": 7897,
      "Ġappender": 7898,
      "Ġscores": 7899,
      "Ġretain": 7900,
      "ĠLevels": 7901,
      "rides": 7902,
      "ĠSerialized": 7903,
      "Ġdrawer": 7904,
      "ĠInvoker": 7905,
      "FA": 7906,
      "ining": 7907,
      "ĠOW": 7908,
      "ĠBookmark": 7909,
      "ĠInstrument": 7910,
      "ĠReaction": 7911,
      "ĠJax": 7912,
      "ĠAltern": 7913,
      "Ġclosest": 7914,
      "Segment": 7915,
      "Ġmaterial": 7916,
      "YN": 7917,
      "ĠCookies": 7918,
      "tricted": 7919,
      "ĠEs": 7920,
      "ĠtoURI": 7921,
      "Ġstub": 7922,
      "ĠStorable": 7923,
      "Ġservicegroup": 7924,
      "Ġauthority": 7925,
      "PLAY": 7926,
      "Ġterminate": 7927,
      "auses": 7928,
      "GROUP": 7929,
      "Try": 7930,
      "Ġty": 7931,
      "Ġsoft": 7932,
      "Ġrecursively": 7933,
      "ĠHOST": 7934,
      "ĠChecker": 7935,
      "ĠDirty": 7936,
      "ĠHelpers": 7937,
      "ĠExpect": 7938,
      "ĠCLOS": 7939,
      "Ġimports": 7940,
      "ĠOrganizational": 7941,
      "Ġasynchronously": 7942,
      "ĠDELIMITER": 7943,
      "Join": 7944,
      "Makes": 7945,
      "Version": 7946,
      "aas": 7947,
      "host": 7948,
      "ĠEQU": 7949,
      "ĠWorld": 7950,
      "ĠGregorian": 7951,
      "ĠAlg": 7952,
      "ĠRecording": 7953,
      "ĠStarting": 7954,
      "ĠPartitions": 7955,
      "Ġdelivery": 7956,
      "Ġdetach": 7957,
      "ynchronously": 7958,
      "Configures": 7959,
      "Ġoccurred": 7960,
      "ANGE": 7961,
      "ĠAttempts": 7962,
      "ĠConsist": 7963,
      "Tests": 7964,
      "Indic": 7965,
      "EP": 7966,
      "erts": 7967,
      "arb": 7968,
      "ĠPOD": 7969,
      "ulner": 7970,
      "ĠHour": 7971,
      "Ġgeneral": 7972,
      "Ġapplying": 7973,
      "ĠImplicit": 7974,
      "ĠInitialization": 7975,
      "ĠInterceptors": 7976,
      "Ġencounter": 7977,
      "ĠPAGINATION": 7978,
      "Descriptor": 7979,
      "COM": 7980,
      "Local": 7981,
      "MT": 7982,
      "Pl": 7983,
      "ĠSym": 7984,
      "Ġsumm": 7985,
      "trins": 7986,
      "rools": 7987,
      "Ġreaction": 7988,
      "Ġhand": 7989,
      "ĠQuote": 7990,
      "ĠLongs": 7991,
      "Control": 7992,
      "ĠPlain": 7993,
      "ĠReturns": 7994,
      "Ġtransformed": 7995,
      "Ensures": 7996,
      "ĠSHORT": 7997,
      "Ġissuer": 7998,
      "RIC": 7999,
      "UES": 8000,
      "col": 8001,
      "ĠSpring": 8002,
      "ĠIC": 8003,
      "ĠTeam": 8004,
      "Ġeven": 8005,
      "ĠTracer": 8006,
      "ĠINV": 8007,
      "Ġcreator": 8008,
      "ĠConditions": 8009,
      "ĠDesign": 8010,
      "Token": 8011,
      "ĠONLY": 8012,
      "ĠHyper": 8013,
      "IFIED": 8014,
      "gets": 8015,
      "Ġtxt": 8016,
      "Ġcclass": 8017,
      "Ġarc": 8018,
      "ĠMil": 8019,
      "ĠLess": 8020,
      "ĠFill": 8021,
      "ĠAnswer": 8022,
      "Ġbuttons": 8023,
      "Ġvectors": 8024,
      "Ġaccumulator": 8025,
      "TING": 8026,
      "Ġrsp": 8027,
      "ĠEmit": 8028,
      "appen": 8029,
      "ĠReb": 8030,
      "Ġund": 8031,
      "ĠSever": 8032,
      "ĠCallbacks": 8033,
      "poses": 8034,
      "ĠClone": 8035,
      "Ġcustomer": 8036,
      "ĠAttachments": 8037,
      "vention": 8038,
      "Ġexpanded": 8039,
      "ĠRoaring": 8040,
      "Ġaz": 8041,
      "Ġfc": 8042,
      "Ġtraining": 8043,
      "usic": 8044,
      "Ġnotation": 8045,
      "pliance": 8046,
      "ĠEXEC": 8047,
      "Ġoccurrences": 8048,
      "Display": 8049,
      "ĠTITLE": 8050,
      "Ġtrain": 8051,
      "ĠCompression": 8052,
      "ĠDeferred": 8053,
      "Ġscene": 8054,
      "prise": 8055,
      "itrus": 8056,
      "ĠRESPON": 8057,
      "Ġpublisher": 8058,
      "IALIZ": 8059,
      "ĠRecognition": 8060,
      "Ġpossibly": 8061,
      "Ġflickr": 8062,
      "ĠParagraph": 8063,
      "ERR": 8064,
      "alued": 8065,
      "Ġplot": 8066,
      "ĠGenerics": 8067,
      "ĠTransactional": 8068,
      "Ġassociation": 8069,
      "Ġlocate": 8070,
      "Ġdatastore": 8071,
      "ĠLOCATION": 8072,
      "21": 8073,
      "DEF": 8074,
      "Url": 8075,
      "iated": 8076,
      "ĠSys": 8077,
      "ĠSender": 8078,
      "Ġrm": 8079,
      "Ġmessaging": 8080,
      "ĠBest": 8081,
      "associate": 8082,
      "odified": 8083,
      "Ġhadoop": 8084,
      "Ġhalf": 8085,
      "ĠTraversal": 8086,
      "Ġclassloader": 8087,
      "ĠReload": 8088,
      "AGES": 8089,
      "Ġplaceholder": 8090,
      "ĠChrono": 8091,
      "ht": 8092,
      "Ġratio": 8093,
      "urator": 8094,
      "Ġfocus": 8095,
      "celer": 8096,
      "ĠFrequency": 8097,
      "ĠReverse": 8098,
      "ĠHints": 8099,
      "ĠWatermark": 8100,
      "Ġchoice": 8101,
      "ĠSubnet": 8102,
      "ĠChecks": 8103,
      "Ġsecondary": 8104,
      "ĠRecon": 8105,
      "ĠGuard": 8106,
      "ĠCaption": 8107,
      "Invokes": 8108,
      "Cache": 8109,
      "Function": 8110,
      "QUE": 8111,
      "Ġ32": 8112,
      "ares": 8113,
      "isode": 8114,
      "ĠMut": 8115,
      "ĠFalse": 8116,
      "Ġvs": 8117,
      "Ġwell": 8118,
      "ĠGZIP": 8119,
      "ĠOffsets": 8120,
      "Ġshown": 8121,
      "Ġyyy": 8122,
      "Ġclusters": 8123,
      "GN": 8124,
      "POS": 8125,
      "brid": 8126,
      "Ġuc": 8127,
      "Ġrpc": 8128,
      "Ġmade": 8129,
      "istorical": 8130,
      "iring": 8131,
      "Ref": 8132,
      "ĠEndian": 8133,
      "ĠGeneration": 8134,
      "Ġfrag": 8135,
      "slt": 8136,
      "Ġaccepted": 8137,
      "ĠSubscriptions": 8138,
      "Resolve": 8139,
      "FFIX": 8140,
      "tainer": 8141,
      "Looks": 8142,
      "Number": 8143,
      "num": 8144,
      "etries": 8145,
      "lems": 8146,
      "Ġptr": 8147,
      "ĠAjax": 8148,
      "ĠFix": 8149,
      "ĠBuckets": 8150,
      "ĠReserved": 8151,
      "UTION": 8152,
      "ĠAccounts": 8153,
      "Component": 8154,
      "Ġmultip": 8155,
      "ĠSlots": 8156,
      "Ġguess": 8157,
      "Ġta": 8158,
      "Ġrename": 8159,
      "Ġfar": 8160,
      "ĠTs": 8161,
      "ĠPact": 8162,
      "Ġproc": 8163,
      "ĠStored": 8164,
      "avity": 8165,
      "Ġyears": 8166,
      "ĠAlluxio": 8167,
      "ĠYaml": 8168,
      "ĠSigning": 8169,
      "ĠCustomer": 8170,
      "ĠAuditor": 8171,
      "Processes": 8172,
      "ĠSYN": 8173,
      "Ġbaseline": 8174,
      "Does": 8175,
      "ĠVARI": 8176,
      "ĠAvro": 8177,
      "UC": 8178,
      "queue": 8179,
      "info": 8180,
      "Ġtakes": 8181,
      "ĠIQ": 8182,
      "ĠLs": 8183,
      "ĠDocker": 8184,
      "Ġletter": 8185,
      "Ġwave": 8186,
      "izard": 8187,
      "Ġjsp": 8188,
      "ĠThrift": 8189,
      "Ġreads": 8190,
      "ĠLocks": 8191,
      "ĠActor": 8192,
      "Ġcapture": 8193,
      "Ġsections": 8194,
      "ĠTools": 8195,
      "ĠDivider": 8196,
      "ropped": 8197,
      "zz": 8198,
      "zen": 8199,
      "Ġcus": 8200,
      "Ġfriendly": 8201,
      "ĠPy": 8202,
      "ĠAx": 8203,
      "ONT": 8204,
      "enerate": 8205,
      "ĠPred": 8206,
      "Ġrunner": 8207,
      "ĠAuthentic": 8208,
      "Ġauthenticated": 8209,
      "Ġcases": 8210,
      "ĠCompact": 8211,
      "REEN": 8212,
      "ĠGrammar": 8213,
      "Ġchunks": 8214,
      "Ġsuccessfully": 8215,
      "Ġbonds": 8216,
      "Ġsigner": 8217,
      "ca": 8218,
      "client": 8219,
      "ĠEffect": 8220,
      "ĠMutation": 8221,
      "ĠFollow": 8222,
      "olid": 8223,
      "Ġstopped": 8224,
      "Ġhuman": 8225,
      "Ġsequences": 8226,
      "ĠPROCESS": 8227,
      "ĠFlt": 8228,
      "Ġvariance": 8229,
      "Ġevaluator": 8230,
      "Show": 8231,
      "ĠDISPLAY": 8232,
      "Ġge": 8233,
      "ĠMost": 8234,
      "ĠIteration": 8235,
      "ĠVarargs": 8236,
      "wards": 8237,
      "ĠMajor": 8238,
      "ABEL": 8239,
      "AF": 8240,
      "Saves": 8241,
      "tag": 8242,
      "Ġpa": 8243,
      "ĠgetS": 8244,
      "ĠNAN": 8245,
      "iling": 8246,
      "atory": 8247,
      "iff": 8248,
      "Ġclassification": 8249,
      "ĠStatements": 8250,
      "Ġpreferences": 8251,
      "ĠPossible": 8252,
      "Ġiterators": 8253,
      "Encode": 8254,
      "ĠWaiting": 8255,
      "ĠPROPERTIES": 8256,
      "1123": 8257,
      "Account": 8258,
      "Cre": 8259,
      "GEN": 8260,
      "Loader": 8261,
      "Tell": 8262,
      "Waits": 8263,
      "patible": 8264,
      "writ": 8265,
      "Ġtuples": 8266,
      "ĠSrt": 8267,
      "Ġmutable": 8268,
      "Ġbid": 8269,
      "ĠclassName": 8270,
      "Ġcsr": 8271,
      "Ġnearest": 8272,
      "ĠOverlay": 8273,
      "With": 8274,
      "tx": 8275,
      "Ġitr": 8276,
      "Ġax": 8277,
      "user": 8278,
      "ĠUnary": 8279,
      "INDOW": 8280,
      "ĠPrinter": 8281,
      "Ġsuppress": 8282,
      "awr": 8283,
      "Ġpolyline": 8284,
      "Ġwatcher": 8285,
      "Ġopencms": 8286,
      "Block": 8287,
      "GR": 8288,
      "traffic": 8289,
      "ĠRfc": 8290,
      "ĠMigration": 8291,
      "Ġeps": 8292,
      "ĠFUN": 8293,
      "ĠBUT": 8294,
      "ĠRepeat": 8295,
      "ĠJBB": 8296,
      "ĠCapabilities": 8297,
      "Ġrespect": 8298,
      "address": 8299,
      "Mo": 8300,
      "brev": 8301,
      "graph": 8302,
      "later": 8303,
      "pan": 8304,
      "Ġser": 8305,
      "ĠCertificates": 8306,
      "ĠCouch": 8307,
      "ecast": 8308,
      "ĠPlease": 8309,
      "lyph": 8310,
      "Inc": 8311,
      "ĠInitializer": 8312,
      "CLUD": 8313,
      "Ġdevices": 8314,
      "ĠJBBP": 8315,
      "Ġillegal": 8316,
      "ĠDn": 8317,
      "Ġans": 8318,
      "ĠAppro": 8319,
      "Ġactor": 8320,
      "Ġconcaten": 8321,
      "Act": 8322,
      "inner": 8323,
      "Ġsplits": 8324,
      "ĠTie": 8325,
      "ĠFO": 8326,
      "Ġou": 8327,
      "Ġobs": 8328,
      "aga": 8329,
      "acle": 8330,
      "Ġlogged": 8331,
      "ĠSeed": 8332,
      "ĠZIP": 8333,
      "ECTION": 8334,
      "ĠWhen": 8335,
      "ĠDifference": 8336,
      "Ġdispatcher": 8337,
      "ĠVertical": 8338,
      "Le": 8339,
      "gen": 8340,
      "olic": 8341,
      "vc": 8342,
      "Ġtp": 8343,
      "ĠEc": 8344,
      "Ġboot": 8345,
      "Ġeffect": 8346,
      "ĠDense": 8347,
      "ablish": 8348,
      "ĠVIE": 8349,
      "Ġjvm": 8350,
      "Ġuncom": 8351,
      "park": 8352,
      "ĠVerification": 8353,
      "Ġterminated": 8354,
      "Ġmonths": 8355,
      "Unit": 8356,
      "echn": 8357,
      "Ġestim": 8358,
      "Ġdeleteresources": 8359,
      "PR": 8360,
      "case": 8361,
      "onom": 8362,
      "ĠCA": 8363,
      "Ġstill": 8364,
      "Ġallocation": 8365,
      "ĠWritten": 8366,
      "positor": 8367,
      "ĠWeights": 8368,
      "Ġrepaint": 8369,
      "ĠSUFFIX": 8370,
      "Ġblue": 8371,
      "Transl": 8372,
      "ĠPixels": 8373,
      "uffle": 8374,
      "ĠPUBLIC": 8375,
      "ĠSteps": 8376,
      "Ġaff": 8377,
      "Ġpp": 8378,
      "ĠIx": 8379,
      "Ġops": 8380,
      "ĠIntros": 8381,
      "olt": 8382,
      "Ġtraverse": 8383,
      "ĠCompressed": 8384,
      "ĠXSL": 8385,
      "ĠInters": 8386,
      "ĠSuite": 8387,
      "Ġnever": 8388,
      "Ġoverwrite": 8389,
      "ĠALLOW": 8390,
      "Ġcalculated": 8391,
      "Asserts": 8392,
      "Ġprototype": 8393,
      "ĠResponses": 8394,
      "Ġbundles": 8395,
      "Link": 8396,
      "TR": 8397,
      "ĠLatch": 8398,
      "see": 8399,
      "Ġtracer": 8400,
      "Ġtrailing": 8401,
      "ĠStanza": 8402,
      "ĠCombo": 8403,
      "ĠConfigured": 8404,
      "Ġmatchers": 8405,
      "ĠForce": 8406,
      "Ġexecuting": 8407,
      "Ġleading": 8408,
      "ĠPrebuilt": 8409,
      "CEPT": 8410,
      "Ġextractor": 8411,
      "Ġopcode": 8412,
      "Ġdetermines": 8413,
      "ĠCoords": 8414,
      "ĠREMO": 8415,
      "ĠCp": 8416,
      "Ġast": 8417,
      "Ġfooter": 8418,
      "Ġpause": 8419,
      "ĠIam": 8420,
      "Ġbp": 8421,
      "ĠLike": 8422,
      "Ġdp": 8423,
      "ĠVFS": 8424,
      "Ġreserved": 8425,
      "ĠAnchor": 8426,
      "Ġtexture": 8427,
      "Ġdisconnect": 8428,
      "ĠIterables": 8429,
      "Ġdetector": 8430,
      "ĠNotifications": 8431,
      "Logs": 8432,
      "Ġsigma": 8433,
      "Ġexcludes": 8434,
      "Ġpolymer": 8435,
      "ĠSentence": 8436,
      "Ġexactly": 8437,
      "Ġ64": 8438,
      "inity": 8439,
      "Ġtier": 8440,
      "Ġhandshake": 8441,
      "ĠClassification": 8442,
      "Ġjedis": 8443,
      "Ġwritable": 8444,
      "ICATE": 8445,
      "Ġreflect": 8446,
      "ĠDBI": 8447,
      "ĠSEG": 8448,
      "ĠSkill": 8449,
      "Ġhighest": 8450,
      "ĠTriple": 8451,
      "ĠFacebook": 8452,
      "Collect": 8453,
      "Script": 8454,
      "Target": 8455,
      "hape": 8456,
      "Ġsarl": 8457,
      "ĠCraw": 8458,
      "ĠIR": 8459,
      "ĠTap": 8460,
      "ocate": 8461,
      "Ġrestriction": 8462,
      "ĠTypeface": 8463,
      "ackson": 8464,
      "achable": 8465,
      "Ġactually": 8466,
      "ESTAMP": 8467,
      "ĠExecutors": 8468,
      "Ġsubscriptions": 8469,
      "Ġsslc": 8470,
      "ĠDatastore": 8471,
      "ĠSPACE": 8472,
      "trinsic": 8473,
      "positories": 8474,
      "PH": 8475,
      "tream": 8476,
      "Ġace": 8477,
      "ingular": 8478,
      "Ġpress": 8479,
      "ĠAcl": 8480,
      "ĠDNS": 8481,
      "quared": 8482,
      "ĠProtected": 8483,
      "thetic": 8484,
      "ĠParcel": 8485,
      "ĠLeast": 8486,
      "ĠIsotope": 8487,
      "Provider": 8488,
      "Ġvpnvserver": 8489,
      "Ġconstructors": 8490,
      "ĠCardinality": 8491,
      "ĠSurface": 8492,
      "Ġbehavior": 8493,
      "Ġpick": 8494,
      "Ġder": 8495,
      "idence": 8496,
      "ĠDep": 8497,
      "ĠStatistic": 8498,
      "Ġlem": 8499,
      "Ġschem": 8500,
      "Ġrecording": 8501,
      "Ġamazon": 8502,
      "Ġaggregation": 8503,
      "ĠMODEL": 8504,
      "cale": 8505,
      "Ġ7": 8506,
      "Ġguid": 8507,
      "ĠgetJSON": 8508,
      "ĠBAD": 8509,
      "ĠConfirm": 8510,
      "Ġanalysis": 8511,
      "Ġhub": 8512,
      "ĠJcr": 8513,
      "ctxt": 8514,
      "Ġassertion": 8515,
      "Ġquick": 8516,
      "ĠGenerate": 8517,
      "ĠTimed": 8518,
      "Compare": 8519,
      "ĠSku": 8520,
      "Ġhtmltree": 8521,
      "ĠBundles": 8522,
      "ĠConcat": 8523,
      "Ġattempts": 8524,
      "Ġinterceptors": 8525,
      "ĠPresence": 8526,
      "doc": 8527,
      "view": 8528,
      "Ġtunnel": 8529,
      "Ġfrequency": 8530,
      "Ġfront": 8531,
      "ĠPur": 8532,
      "Ġlater": 8533,
      "req": 8534,
      "under": 8535,
      "Ġhappen": 8536,
      "Ġkill": 8537,
      "ĠXA": 8538,
      "ĠRefs": 8539,
      "Ġlocks": 8540,
      "ĠSigned": 8541,
      "OLD": 8542,
      "ĠSUP": 8543,
      "ĠAggregated": 8544,
      "Ġindicating": 8545,
      "Ġparallelism": 8546,
      "avorite": 8547,
      "ĠSubstitution": 8548,
      "500": 8549,
      "AIT": 8550,
      "Save": 8551,
      "eak": 8552,
      "jc": 8553,
      "ĠCOR": 8554,
      "Ġfatal": 8555,
      "ĠER": 8556,
      "ĠgetCP": 8557,
      "ĠRGB": 8558,
      "Ġinst": 8559,
      "ĠLABEL": 8560,
      "Ġls": 8561,
      "Ġreached": 8562,
      "ucle": 8563,
      "ĠPerformed": 8564,
      "ĠRECORD": 8565,
      "efined": 8566,
      "rogate": 8567,
      "ĠRESPONSE": 8568,
      "ĠBUTTON": 8569,
      "pre": 8570,
      "Ġfold": 8571,
      "ĠASS": 8572,
      "ĠAncestor": 8573,
      "Ġappendable": 8574,
      "Ġprepend": 8575,
      "Ġendian": 8576,
      "ORITY": 8577,
      "ĠLeading": 8578,
      "Ġ02": 8579,
      "ymbolic": 8580,
      "ĠMotion": 8581,
      "Ġlayers": 8582,
      "ĠCells": 8583,
      "ĠCONTRO": 8584,
      "Configuration": 8585,
      "Ġpopulation": 8586,
      "ĠDOMAIN": 8587,
      "auss": 8588,
      "Ġtruncate": 8589,
      "Order": 8590,
      "ĠLDAP": 8591,
      ")'": 8592,
      "MD": 8593,
      "etary": 8594,
      "Ġsom": 8595,
      "Ġrb": 8596,
      "urity": 8597,
      "Ġbridge": 8598,
      "Ġear": 8599,
      "ĠLook": 8600,
      "Ġextend": 8601,
      "Ġ')'": 8602,
      "ĠRecorder": 8603,
      "ĠCONSTR": 8604,
      "ĠRecipient": 8605,
      "ĠPACKAGE": 8606,
      "Ġyyyy": 8607,
      "''": 8608,
      "BO": 8609,
      "Task": 8610,
      "fe": 8611,
      "gister": 8612,
      "lines": 8613,
      "atable": 8614,
      "ĠSS": 8615,
      "ĠSIGN": 8616,
      "Ġfp": 8617,
      "ĠPID": 8618,
      "Ġvl": 8619,
      "stack": 8620,
      "ĠHandshake": 8621,
      "ĠWINDOW": 8622,
      "Ġdecision": 8623,
      "ĠReflect": 8624,
      "Ġabove": 8625,
      "Ġ'\\''": 8626,
      "Decodes": 8627,
      "Ġsurface": 8628,
      "ĠInternet": 8629,
      "ĠAnalyzer": 8630,
      "ĠSOAP": 8631,
      "ĠVIEW": 8632,
      "wd": 8633,
      "atient": 8634,
      "iset": 8635,
      "Ġmath": 8636,
      "Ġdos": 8637,
      "Ġstores": 8638,
      "Ġconfirm": 8639,
      "Ġkv": 8640,
      "Ġelastic": 8641,
      "Ġtrying": 8642,
      "Ġones": 8643,
      "Ġlonger": 8644,
      "Ġtimezone": 8645,
      "ĠLOW": 8646,
      "AML": 8647,
      "Reference": 8648,
      "ĠProjects": 8649,
      "OLDER": 8650,
      "ĠRecycler": 8651,
      "Ġdivide": 8652,
      "ĠOPER": 8653,
      "RESH": 8654,
      "Ġoverlay": 8655,
      "ĠWHERE": 8656,
      "Provides": 8657,
      "='": 8658,
      "Rest": 8659,
      "cing": 8660,
      "Ġud": 8661,
      "ĠSy": 8662,
      "icast": 8663,
      "ĠPt": 8664,
      "ĠRPC": 8665,
      "Ġmarshal": 8666,
      "tereo": 8667,
      "Ġ'='": 8668,
      "ĠPlot": 8669,
      "SSL": 8670,
      "Reset": 8671,
      "Ġbitmaps": 8672,
      "ĠExclude": 8673,
      "ĠNEG": 8674,
      "Ġimmediately": 8675,
      "undera": 8676,
      "Ass": 8677,
      "Pos": 8678,
      "egative": 8679,
      "ks": 8680,
      "ĠSquare": 8681,
      "ĠEmbed": 8682,
      "Ġvc": 8683,
      "ĠOVER": 8684,
      "Ġexponent": 8685,
      "ethrow": 8686,
      "anging": 8687,
      "Ġcontainers": 8688,
      "ANN": 8689,
      "ĠAdvance": 8690,
      "Ġrecycle": 8691,
      "ĠFluent": 8692,
      "Ġcorresponds": 8693,
      "Ġsymbols": 8694,
      "force": 8695,
      "ĠConcurrency": 8696,
      "CONFIG": 8697,
      "Allows": 8698,
      "ĠEQUAL": 8699,
      "Package": 8700,
      "Ġcaches": 8701,
      "Ġgreen": 8702,
      "Ġpx": 8703,
      "ĠBuilt": 8704,
      "allow": 8705,
      "Ġhel": 8706,
      "Ġwhite": 8707,
      "ĠWithin": 8708,
      "Ġcld": 8709,
      "Ġweak": 8710,
      "Ġiterate": 8711,
      "ĠCONF": 8712,
      "Stores": 8713,
      "Ġaccounts": 8714,
      "ĠWhile": 8715,
      "IRED": 8716,
      "Ġopts": 8717,
      "Ġdescend": 8718,
      "Ġaggregated": 8719,
      "Ġcombination": 8720,
      "Notifies": 8721,
      "Ġbelow": 8722,
      "aad": 8723,
      "ahead": 8724,
      "ette": 8725,
      "ĠCURRENT": 8726,
      "trl": 8727,
      "ĠTrim": 8728,
      "ĠDET": 8729,
      "iding": 8730,
      "ersed": 8731,
      "Ġonto": 8732,
      "Ġprecond": 8733,
      "ĠPrecision": 8734,
      "Ġapplies": 8735,
      "Ġdirty": 8736,
      "Ġsuitable": 8737,
      "Ġabsent": 8738,
      "ampling": 8739,
      "ĠMonths": 8740,
      "ĠPERM": 8741,
      "ĠADDRESS": 8742,
      "Ġoverridden": 8743,
      "oices": 8744,
      "ĠCitrus": 8745,
      "ently": 8746,
      "ĠRaster": 8747,
      "acl": 8748,
      "Ġdeactivate": 8749,
      "Ġxctxt": 8750,
      "Ġdeletion": 8751,
      "ithmetic": 8752,
      "Ġgradient": 8753,
      "Ġattachments": 8754,
      "argest": 8755,
      "ĠMINUTE": 8756,
      "ĠSwing": 8757,
      "etcdf": 8758,
      "aadin": 8759,
      "dl": 8760,
      "ĠRoad": 8761,
      "Ġmbean": 8762,
      "ĠMED": 8763,
      "essian": 8764,
      "ourc": 8765,
      "Ġhit": 8766,
      "Ġchem": 8767,
      "Ġlogout": 8768,
      "IDER": 8769,
      "CEPTION": 8770,
      "empty": 8771,
      "Comp": 8772,
      "Ġutility": 8773,
      "Ġextracted": 8774,
      "ĠPRIM": 8775,
      "Ġautos": 8776,
      "ĠDatatype": 8777,
      "Default": 8778,
      "Ġguard": 8779,
      "ĠFINEST": 8780,
      "ĠElasticsearch": 8781,
      "Ġinherited": 8782,
      "echanism": 8783,
      "VERSION": 8784,
      "work": 8785,
      "ĠSlide": 8786,
      "Ġpom": 8787,
      "asing": 8788,
      "ĠLed": 8789,
      "ĠUtf": 8790,
      "ĠJingle": 8791,
      "ression": 8792,
      "ĠDoes": 8793,
      "Ġadj": 8794,
      "ĠREL": 8795,
      "anguages": 8796,
      "ĠPART": 8797,
      "ĠRESOUR": 8798,
      "Ġnotifications": 8799,
      "ĠTicker": 8800,
      "tegral": 8801,
      "ANGU": 8802,
      "Ġorders": 8803,
      "ĠASCII": 8804,
      "LIC": 8805,
      "atures": 8806,
      "Ġfingerprint": 8807,
      "rozen": 8808,
      "idx": 8809,
      "ĠScopes": 8810,
      "Ġnamespaces": 8811,
      "ĠDoclet": 8812,
      "Ġsuccessful": 8813,
      "Ġrouting": 8814,
      "ĠCRL": 8815,
      "ktop": 8816,
      "Ġreplica": 8817,
      "ucleot": 8818,
      "Line": 8819,
      "Sw": 8820,
      "Ġturn": 8821,
      "Ġtyp": 8822,
      "ĠPin": 8823,
      "ĠPrim": 8824,
      "ĠDaemon": 8825,
      "Ġlin": 8826,
      "Ġappflow": 8827,
      "utex": 8828,
      "Ġregisters": 8829,
      "ĠPools": 8830,
      "ĠPerf": 8831,
      "ĠENGL": 8832,
      "Specify": 8833,
      "Ġderived": 8834,
      "ĠJMX": 8835,
      "ĠDDRM": 8836,
      "ĠRounding": 8837,
      "ĠENGLISH": 8838,
      "86": 8839,
      "FILE": 8840,
      "bitr": 8841,
      "Ġpag": 8842,
      "ĠRs": 8843,
      "ĠNetcdf": 8844,
      "Ġdeprecated": 8845,
      "andatory": 8846,
      "Ġnotes": 8847,
      "ĠSeen": 8848,
      "Ġxx": 8849,
      "Ġheartbeat": 8850,
      "Ġstreaming": 8851,
      "ĠSubmission": 8852,
      "Ġimplicit": 8853,
      "Ġbacking": 8854,
      "ĠCREATED": 8855,
      "cached": 8856,
      "service": 8857,
      "ĠCred": 8858,
      "Ġinode": 8859,
      "Ġoos": 8860,
      "Ġdensity": 8861,
      "agram": 8862,
      "ership": 8863,
      "Ġclassifier": 8864,
      "parameter": 8865,
      "ĠOuter": 8866,
      "Input": 8867,
      "ĠPROV": 8868,
      "Ġtransactions": 8869,
      "Resource": 8870,
      "ĠChunks": 8871,
      "ĠCollision": 8872,
      "Ġautomatically": 8873,
      "Ġsemantic": 8874,
      "orr": 8875,
      "track": 8876,
      "Ġmx": 8877,
      "ĠMaintenance": 8878,
      "api": 8879,
      "Ġdeferred": 8880,
      "Ġdeprecation": 8881,
      "Ġimag": 8882,
      "Ġprintf": 8883,
      "ĠRegular": 8884,
      "ĠConverters": 8885,
      "Ġphysical": 8886,
      "Parameters": 8887,
      "Ġmonitoring": 8888,
      "Only": 8889,
      "ĠSmall": 8890,
      "onomy": 8891,
      "eel": 8892,
      "network": 8893,
      "Ġcv": 8894,
      "ĠLarge": 8895,
      "ĠtoJSON": 8896,
      "ĠUID": 8897,
      "ĠRepo": 8898,
      "ĠWiki": 8899,
      "Ġjax": 8900,
      "Ġoutgoing": 8901,
      "LED": 8902,
      "Ġobjs": 8903,
      "STAT": 8904,
      "Ġoutputs": 8905,
      "Insert": 8906,
      "ĠPOSITIVE": 8907,
      "Assign": 8908,
      "ĠHybrid": 8909,
      "ĠSigner": 8910,
      "Serialize": 8911,
      "ĠEDIT": 8912,
      "uggestions": 8913,
      "ftp": 8914,
      "iol": 8915,
      "ĠSING": 8916,
      "Ġcamel": 8917,
      "ĠCampaign": 8918,
      "ĠOs": 8919,
      "Ġom": 8920,
      "ĠOnline": 8921,
      "ĠDistributed": 8922,
      "ĠZxid": 8923,
      "Ġdecl": 8924,
      "Ġgran": 8925,
      "ĠDatanode": 8926,
      "Ġrounding": 8927,
      "Ġpropagate": 8928,
      "ulnerability": 8929,
      "px": 8930,
      "lee": 8931,
      "Ġmaven": 8932,
      "Ġldap": 8933,
      "ĠBenchmark": 8934,
      "agger": 8935,
      "tegers": 8936,
      "aping": 8937,
      "Ġreshape": 8938,
      "ĠResize": 8939,
      "Ġaspect": 8940,
      "obuf": 8941,
      "ĠFiltered": 8942,
      "ĠNamespaces": 8943,
      "ĠWeaker": 8944,
      "Ġupdating": 8945,
      "Ġcurve": 8946,
      "ĠBlue": 8947,
      "ĠMarkup": 8948,
      "Ġfactories": 8949,
      "Ġjavascript": 8950,
      "ĠRoutes": 8951,
      "ĠDOCUMENT": 8952,
      "ĠWeakerAccess": 8953,
      "New": 8954,
      "Queue": 8955,
      "cd": 8956,
      "eto": 8957,
      "Ġtip": 8958,
      "Ġtiles": 8959,
      "Ġcar": 8960,
      "Ġcli": 8961,
      "Ġpull": 8962,
      "ĠIMP": 8963,
      "ĠgetJ": 8964,
      "ĠLAY": 8965,
      "ĠFront": 8966,
      "ĠOM": 8967,
      "Ġdict": 8968,
      "rib": 8969,
      "ĠListen": 8970,
      "ĠWire": 8971,
      "enders": 8972,
      "ĠTraining": 8973,
      "moji": 8974,
      "ĠQueues": 8975,
      "Ġxjc": 8976,
      "Ġcloned": 8977,
      "obol": 8978,
      "afely": 8979,
      "ĠProcessed": 8980,
      "Ġportal": 8981,
      "ĠAggregator": 8982,
      "emantics": 8983,
      "ĠBEAN": 8984,
      "ĠUnmodified": 8985,
      "ĠStylesheet": 8986,
      "ĠCfg": 8987,
      "ĠPRIMARY": 8988,
      "Lock": 8989,
      "ne": 8990,
      "tact": 8991,
      "ĠStrict": 8992,
      "ĠFork": 8993,
      "Ġwalk": 8994,
      "ĠRefer": 8995,
      "Ġhd": 8996,
      "ussion": 8997,
      "ĠJmx": 8998,
      "ĠScoped": 8999,
      "olecular": 9000,
      "conn": 9001,
      "ICAL": 9002,
      "Ġexiting": 9003,
      "Ġdependent": 9004,
      "ĠDependent": 9005,
      "Ġperformance": 9006,
      "ĠROLE": 9007,
      "Declar": 9008,
      "ĠSlave": 9009,
      "ĠActivation": 9010,
      "ĠFRAME": 9011,
      "Ġprefetch": 9012,
      "Ġinterpol": 9013,
      "ĠMARKER": 9014,
      "ĠSeverity": 9015,
      "Clean": 9016,
      "From": 9017,
      "tas": 9018,
      "Ġtf": 9019,
      "Ġsynchron": 9020,
      "Ġnl": 9021,
      "rol": 9022,
      "ĠTS": 9023,
      "ĠPC": 9024,
      "ĠPers": 9025,
      "Ġmf": 9026,
      "ĠMX": 9027,
      "Ġbd": 9028,
      "ĠBIG": 9029,
      "Ġdc": 9030,
      "quired": 9031,
      "Ġresourc": 9032,
      "ĠReceive": 9033,
      "ĠCommunication": 9034,
      "Ġunicode": 9035,
      "ĠDefs": 9036,
      "Ġprevent": 9037,
      "Ġpolicies": 9038,
      "ORIZ": 9039,
      "Container": 9040,
      "Ġrefs": 9041,
      "Expression": 9042,
      "ĠIsolation": 9043,
      "Ġterminal": 9044,
      "Ġphotos": 9045,
      "Ġunsetresources": 9046,
      "Ġanalyze": 9047,
      "Ġalternate": 9048,
      "Ġ2018": 9049,
      "OLEAN": 9050,
      "VED": 9051,
      "Ġsound": 9052,
      "ĠPid": 9053,
      "ĠPooled": 9054,
      "Ġbo": 9055,
      "Ġdashboard": 9056,
      "ĠJPA": 9057,
      "Ġoutside": 9058,
      "Ġgrouping": 9059,
      "ookeeper": 9060,
      "sheet": 9061,
      "ĠYou": 9062,
      "ĠCLOSE": 9063,
      "Ġoffline": 9064,
      "ĠPARENT": 9065,
      "OCOL": 9066,
      "Ġcudnn": 9067,
      "Ġdegrees": 9068,
      "ĠCLOSED": 9069,
      "Ext": 9070,
      "GOR": 9071,
      "Socket": 9072,
      "aled": 9073,
      "ĠCurr": 9074,
      "Ġfault": 9075,
      "ĠPE": 9076,
      "edora": 9077,
      "Ġembed": 9078,
      "ĠDS": 9079,
      "ĠFil": 9080,
      "ĠBIN": 9081,
      "Ġang": 9082,
      "ĠGwt": 9083,
      "standing": 9084,
      "Ġenough": 9085,
      "crimin": 9086,
      "Ġconfigs": 9087,
      "anceled": 9088,
      "ĠValidity": 9089,
      "ĠRoots": 9090,
      "ĠREPL": 9091,
      "ĠMono": 9092,
      "phere": 9093,
      "Ġtoolbar": 9094,
      "ĠKNX": 9095,
      "ycles": 9096,
      "ĠFUNCTION": 9097,
      "Recursively": 9098,
      "bes": 9099,
      "visor": 9100,
      "atar": 9101,
      "ĠTunnel": 9102,
      "ĠAverage": 9103,
      "Ġmeth": 9104,
      "ĠDIG": 9105,
      "ĠHs": 9106,
      "ĠWay": 9107,
      "ething": 9108,
      "ĠQuant": 9109,
      "ĠINTE": 9110,
      "ETYPE": 9111,
      "ICK": 9112,
      "ĠDeterm": 9113,
      "ĠNonnegative": 9114,
      "ĠVerb": 9115,
      "ĠRelational": 9116,
      "ĠSuccessful": 9117,
      "Sequence": 9118,
      "ĠACCEPT": 9119,
      "ĠRouting": 9120,
      "Ġunsafe": 9121,
      "ĠBandwidth": 9122,
      "Ġsubsystem": 9123,
      "ĠCMA": 9124,
      "##": 9125,
      "Ġtrees": 9126,
      "ĠICON": 9127,
      "ĠAM": 9128,
      "Ġmigration": 9129,
      "ĠHorizontal": 9130,
      "ĠStand": 9131,
      "ĠJAR": 9132,
      "Ġonline": 9133,
      "ĠUnavailable": 9134,
      "Ġstartup": 9135,
      "Ġcontexts": 9136,
      "Ġlevels": 9137,
      "Ġendpoints": 9138,
      "Ġdescriptors": 9139,
      "ĠFactories": 9140,
      "ĠASCENDING": 9141,
      "inerary": 9142,
      "ĠACTIVE": 9143,
      "Indicates": 9144,
      "ĠSINGLE": 9145,
      "BACK": 9146,
      "Clear": 9147,
      "trict": 9148,
      "Ġpb": 9149,
      "ĠErl": 9150,
      "amma": 9151,
      "ĠWar": 9152,
      "Ġchoose": 9153,
      "ĠThumbnail": 9154,
      "ĠLOAD": 9155,
      "ĠDocumentation": 9156,
      "Ent": 9157,
      "Enables": 9158,
      "Ġproduction": 9159,
      "ĠIdentifiers": 9160,
      "Ġascending": 9161,
      "Ġpotential": 9162,
      "Ġresourcename": 9163,
      "ĠErlang": 9164,
      "Part": 9165,
      "iates": 9166,
      "Ġdedicated": 9167,
      "ĠEnhance": 9168,
      "Ġlogp": 9169,
      "ĠNotify": 9170,
      "ANK": 9171,
      "ĠDeletion": 9172,
      "ĠClusters": 9173,
      "Ġtesting": 9174,
      "Ġneighbour": 9175,
      "Ġroutes": 9176,
      "Ġpredicates": 9177,
      "Deserial": 9178,
      "Ġannotate": 9179,
      "ĠRFC": 9180,
      "DI": 9181,
      "DR": 9182,
      "IAN": 9183,
      "Push": 9184,
      "mask": 9185,
      "Ġcart": 9186,
      "aran": 9187,
      "arter": 9188,
      "ĠIGN": 9189,
      "ĠRational": 9190,
      "Ġlg": 9191,
      "oth": 9192,
      "erview": 9193,
      "Ġhard": 9194,
      "ĠThere": 9195,
      "Ġclas": 9196,
      "ĠAdapt": 9197,
      "ĠUNS": 9198,
      "eleton": 9199,
      "ĠBracket": 9200,
      "Ġidentify": 9201,
      "Ġallocated": 9202,
      "Ġstylesheet": 9203,
      "ĠSynchronization": 9204,
      "Ġprecondition": 9205,
      "Rel": 9206,
      "cut": 9207,
      "domain": 9208,
      "ĠStroke": 9209,
      "Ġintros": 9210,
      "ĠDr": 9211,
      "ĠFingerprint": 9212,
      "Ġdummy": 9213,
      "unit": 9214,
      "ĠVaadin": 9215,
      "ĠWave": 9216,
      "ersc": 9217,
      "rivial": 9218,
      "Ġyy": 9219,
      "ĠClaim": 9220,
      "Ġfloating": 9221,
      "ISION": 9222,
      "Ġserializable": 9223,
      "ĠOpcodes": 9224,
      "IFICATION": 9225,
      "ĠSCREEN": 9226,
      "ĠMETRIC": 9227,
      "ĠTHREAD": 9228,
      "Ġunsubscribe": 9229,
      "Ġquoted": 9230,
      "Ġpresence": 9231,
[...]
